{"<unk>":0,"<s>":1,"</s>":2,"!":3,"\"":4,"#":5,"$":6,"%":7,"&":8,"'":9,"(":10,")":11,"*":12,"+":13,",":14,"-":15,".":16,"/":17,"0":18,"1":19,"2":20,"3":21,"4":22,"5":23,"6":24,"7":25,"8":26,"9":27,":":28,";":29,"<":30,"=":31,">":32,"?":33,"@":34,"A":35,"B":36,"C":37,"D":38,"E":39,"F":40,"G":41,"H":42,"I":43,"J":44,"K":45,"L":46,"M":47,"N":48,"O":49,"P":50,"Q":51,"R":52,"S":53,"T":54,"U":55,"V":56,"W":57,"X":58,"Y":59,"Z":60,"[":61,"\\":62,"]":63,"^":64,"_":65,"`":66,"a":67,"b":68,"c":69,"d":70,"e":71,"f":72,"g":73,"h":74,"i":75,"j":76,"k":77,"l":78,"m":79,"n":80,"o":81,"p":82,"q":83,"r":84,"s":85,"t":86,"u":87,"v":88,"w":89,"x":90,"y":91,"z":92,"{":93,"|":94,"}":95,"~":96,"¡":97,"¢":98,"£":99,"¤":100,"¥":101,"¦":102,"§":103,"¨":104,"©":105,"ª":106,"«":107,"¬":108,"®":109,"¯":110,"°":111,"±":112,"²":113,"³":114,"´":115,"µ":116,"¶":117,"·":118,"¸":119,"¹":120,"º":121,"»":122,"¼":123,"½":124,"¾":125,"¿":126,"À":127,"Á":128,"Â":129,"Ã":130,"Ä":131,"Å":132,"Æ":133,"Ç":134,"È":135,"É":136,"Ê":137,"Ë":138,"Ì":139,"Í":140,"Î":141,"Ï":142,"Ð":143,"Ñ":144,"Ò":145,"Ó":146,"Ô":147,"Õ":148,"Ö":149,"×":150,"Ø":151,"Ù":152,"Ú":153,"Û":154,"Ü":155,"Ý":156,"Þ":157,"ß":158,"à":159,"á":160,"â":161,"ã":162,"ä":163,"å":164,"æ":165,"ç":166,"è":167,"é":168,"ê":169,"ë":170,"ì":171,"í":172,"î":173,"ï":174,"ð":175,"ñ":176,"ò":177,"ó":178,"ô":179,"õ":180,"ö":181,"÷":182,"ø":183,"ù":184,"ú":185,"û":186,"ü":187,"ý":188,"þ":189,"ÿ":190,"Ā":191,"ā":192,"Ă":193,"ă":194,"Ą":195,"ą":196,"Ć":197,"ć":198,"Ĉ":199,"ĉ":200,"Ċ":201,"ċ":202,"Č":203,"č":204,"Ď":205,"ď":206,"Đ":207,"đ":208,"Ē":209,"ē":210,"Ĕ":211,"ĕ":212,"Ė":213,"ė":214,"Ę":215,"ę":216,"Ě":217,"ě":218,"Ĝ":219,"ĝ":220,"Ğ":221,"ğ":222,"Ġ":223,"ġ":224,"Ģ":225,"ģ":226,"Ĥ":227,"ĥ":228,"Ħ":229,"ħ":230,"Ĩ":231,"ĩ":232,"Ī":233,"ī":234,"Ĭ":235,"ĭ":236,"Į":237,"į":238,"İ":239,"ı":240,"Ĳ":241,"ĳ":242,"Ĵ":243,"ĵ":244,"Ķ":245,"ķ":246,"ĸ":247,"Ĺ":248,"ĺ":249,"Ļ":250,"ļ":251,"Ľ":252,"ľ":253,"Ŀ":254,"ŀ":255,"Ł":256,"ł":257,"Ń":258,"Ġt":259,"Ġa":260,"in":261,"he":262,"re":263,"on":264,"Ġthe":265,"er":266,"Ġs":267,"Ġw":268,"Ġo":269,"at":270,"nd":271,"Ġc":272,"it":273,"ou":274,"or":275,"es":276,"is":277,"Ġf":278,"en":279,"Ġp":280,"ing":281,"Ġb":282,"an":283,"ed":284,"al":285,"Ġto":286,"Ġm":287,"Ġand":288,"ar":289,"Ġin":290,"Ġof":291,"Ġd":292,"ic":293,"le":294,"om":295,"ion":296,"Ġh":297,"as":298,"Ġth":299,"ll":300,"Ġy":301,"ent":302,"Ġl":303,"ve":304,"Ġe":305,"ro":306,"Ġre":307,"st":308,"Ġn":309,"Ġyou":310,"ct":311,"Ġg":312,"ly":313,"et":314,"âĢ":315,"ĠI":316,"Ġis":317,"Ġbe":318,"Ġfor":319,"ĠT":320,"ut":321,"ot":322,"Ġon":323,"id":324,"ur":325,"ĠS":326,"ow":327,"ay":328,"us":329,"ce":330,"im":331,"ig":332,"ĠC":333,"ra":334,"ch":335,"ĠA":336,"ith":337,"ver":338,"ation":339,"il":340,"Ġthat":341,"Ġst":342,"ol":343,"Ġwith":344,"ad":345,"am":346,"ir":347,"Ġit":348,"se":349,"Ġwe":350,"âĢĻ":351,"ĠM":352,"Ġan":353,"Ġpro":354,"ill":355,"Ġas":356,"Ġare":357,"ers":358,"Ġhe":359,"Ġwh":360,"if":361,"ĠP":362,"un":363,"ge":364,"ĠB":365,"ke":366,"Ġha":367,"Ġcon":368,"Ġor":369,"ter":370,"ul":371,"ess":372,"oo":373,"Ġcom":374,"ĠW":375,"ate":376,"pp":377,"her":378,"ment":379,"est":380,"ab":381,"Ġyour":382,"ld":383,"Ġde":384,"Ġat":385,"ĠThe":386,"Ġse":387,"ck":388,"Ġmo":389,"ri":390,"Ġex":391,"ĠH":392,"ĠD":393,"rom":394,"Ġne":395,"pe":396,"igh":397,"qu":398,"ĠF":399,"ort":400,"ure":401,"ist":402,"Ġv":403,"ant":404,"Ġ1":405,"ity":406,"ive":407,"ĠR":408,"Ġhave":409,"Ġcan":410,"um":411,"art":412,"Ġwas":413,"ust":414,"Ġ2":415,"Ġus":416,"op":417,"Ġ(":418,"Ġfrom":419,"Ġthis":420,"em":421,"ain":422,"ĠL":423,"th":424,"Ġal":425,"Ġr":426,"Ġsh":427,"ĠG":428,"ies":429,"Ġch":430,"el":431,"os":432,"Ġwill":433,"Ġby":434,"Ġsu":435,"Ġnot":436,"nt":437,"ĠE":438,"and":439,"Ġu":440,"res":441,"ĠN":442,"all":443,"ight":444,"ome":445,"Ġle":446,"ard":447,"ud":448,"out":449,"iv":450,"ie":451,"our":452,"Ġab":453,"Ġdo":454,"Ġwor":455,"ĠO":456,"ial":457,"red":458,"ould":459,"Ġpl":460,"Ġall":461,"te":462,"ide":463,"per":464,"rou":465,"ĠâĢ":466,"gh":467,"ine":468,"Ġso":469,"Ġma":470,"fe":471,"Ġcomp":472,"age":473,"Ġj":474,"ice":475,"ast":476,"Ġk":477,"pt":478,"Ġad":479,"ally":480,"ction":481,"ear":482,"00":483,"Ġhas":484,"lo":485,"Ġwhe":486,"The":487,"king":488,"ag":489,"able":490,"Ġen":491,"ac":492,"Ġme":493,"ther":494,"so":495,"ind":496,"od":497,"Ġbut":498,"ich":499,"ĠJ":500,"ip":501,"ack":502,"Ġout":503,"Ġour":504,"are":505,"Ġup":506,"ite":507,"very":508,"one":509,"ated":510,"Ġlo":511,"cc":512,"ry":513,"Ġmore":514,"Ġtheir":515,"ime":516,"du":517,"Ġte":518,"Ġim":519,"ood":520,"iz":521,"'s":522,"for":523,"ong":524,"ĠU":525,"Ġthey":526,"ore":527,"ĠTh":528,"ous":529,"Ġone":530,"Ġmy":531,"Ġcont":532,"ks":533,"ans":534,"ance":535,"ib":536,"ions":537,"ign":538,"Ġcl":539,"Ġman":540,"Ġinc":541,"ike":542,"ĠIn":543,"ost":544,"Ġun":545,"Ġfe":546,"Ġres":547,"ru":548,"Ġapp":549,"Ġabout":550,"act":551,"Ġwhich":552,"reat":553,"ire":554,"Ġqu":555,"ult":556,"ase":557,"ail":558,"ace":559,"ations":560,"Ġper":561,"ia":562,"ĠY":563,"erv":564,"og":565,"Ġalso":566,"ree":567,"Ġtime":568,"Ġoff":569,"Ġany":570,"to":571,"01":572,"Ġgo":573,"Ġother":574,"Ġwho":575,"ap":576,"ach":577,"ne":578,"ame":579,"ber":580,"form":581,"ass":582,"vel":583,"ĠK":584,"Ġsp":585,"ical":586,"ile":587,"ary":588,"ep":589,"ven":590,"Ġget":591,"ount":592,"Ġdis":593,"ays":594,"Ġyear":595,"Ġpart":596,"ff":597,"ence":598,"ue":599,"Ġsome":600,"Ġlike":601,"ĠIt":602,"ook":603,"ents":604,"Ġnew":605,"own":606,"Ġsa":607,"ition":608,"Ġta":609,"ub":610,"Ġthem":611,"ĠV":612,"Ġtra":613,"Ġneed":614,"ings":615,"pl":616,"ress":617,"âĢĿ":618,"ick":619,"ors":620,"Ġhis":621,"ond":622,"Ġ3":623,"Ġspe":624,"Ġover":625,"Ġar":626,"ĠSt":627,"ark":628,"cial":629,"Ġro":630,"Ġthere":631,"Ġrec":632,"Ġif":633,"Ġwhen":634,"ĠWe":635,"Ġsc":636,"Ġimp":637,"ĠCh":638,"Ġbeen":639,"Ġpe":640,"Ġco":641,"ild":642,"av":643,"Ġpre":644,"Ġwork":645,"Ġ201":646,"Ġkn":647,"ens":648,"Ġag":649,"Ġwhat":650,"Ġacc":651,"Ġwould":652,"Ġthan":653,"ough":654,"Ġdes":655,"Ġwere":656,"int":657,"wn":658,"ish":659,"ater":660,"Ġam":661,"ound":662,"ĠâĢľ":663,"Ġjust":664,"ren":665,"Ġhow":666,"ord":667,"rough":668,"nder":669,"Ġhad":670,"Ġcomm":671,"Ġprov":672,"Ġinto":673,"lp":674,"Ġbec":675,"ak":676,"lud":677,"use":678,"irst":679,"lic":680,"vers":681,"Ġhelp":682,"ĠThis":683,"ang":684,"ople":685,"Ġ\"":686,"Ġserv":687,"Ġmay":688,"ory":689,"ning":690,"old":691,"Ġmake":692,"Ġno":693,"Ġits":694,"Ġadd":695,"Ġuse":696,"Ġbu":697,"fter":698,"ram":699,"ces":700,"Ġpr":701,"Ġ-":702,"rent":703,"Ġem":704,").":705,"ual":706,"ments":707,"Ġher":708,"Ġprodu":709,"itt":710,"we":711,"Ġpeople":712,"Ġmost":713,"Ġtr":714,"ose":715,"Ġind":716,"ious":717,"Ġknow":718,"ft":719,"Ġinclud":720,"oc":721,"ices":722,"Ġthrough":723,"cts":724,"les":725,"Ġonly":726,"tern":727,"Ġwell":728,"ates":729,"ons":730,"Ġtw":731,"ily":732,"je":733,"Ġfirst":734,"hed":735,"end":736,"ull":737,"ink":738,"Ġbet":739,"Ġevery":740,"ĠHe":741,"round":742,"Ġcons":743,"ise":744,"Ġpo":745,"Ġph":746,"ating":747,"ian":748,"Ġthese":749,"ĠâĢĵ":750,"ities":751,"ause":752,"..":753,"Ġwant":754,"Ġunder":755,"Ġ4":756,"ade":757,"Ġsupp":758,"ific":759,"Ġexper":760,"bs":761,"Ġsee":762,"Ġback":763,"hen":764,"Ġdif":765,"Ġvery":766,"Ġrep":767,"iness":768,"Ġ5":769,"Ġcol":770,"amp":771,"Th":772,"ĠYou":773,"Ġsy":774,"cess":775,"mer":776,"Ġreg":777,"ph":778,"iew":779,"Ġact":780,"li":781,"oth":782,"ful":783,"ert":784,"ange":785,"lect":786,"ict":787,"xt":788,"Ġra":789,"Ġmany":790,"Ġbus":791,"ced":792,"Ġstud":793,"day":794,"Ġinv":795,"Ġtwo":796,"Ġgood":797,"Ġ19":798,"any":799,"uch":800,"row":801,"ible":802,"urn":803,"fore":804,"Ġfl":805,"Ġke":806,"Ġgreat":807,"'t":808,"Ġway":809,"fect":810,"ures":811,"ife":812,"als":813,"sel":814,"ility":815,"Ġshe":816,"ting":817,"Ġsm":818,"Ġyears":819,"iss":820,"Ġwhere":821,"Ġpos":822,"Ġdec":823,"Ġshould":824,"eth":825,"ving":826,"Ġrem":827,"erson":828,"ys":829,"Ġafter":830,"ased":831,"Ġcould":832,"Ġinform":833,"Ġev":834,"Ġeven":835,"Ġbest":836,"Ġthen":837,"ower":838,"Ġent":839,"ool":840,"get":841,"ience":842,"Ġown":843,"stem":844,"Ġac":845,"ular":846,"Ġinst":847,"ec":848,"ational":849,"ont":850,"Ġfind":851,"ew":852,"Ġset":853,"Ġhigh":854,"ved":855,"olog":856,"ble":857,"Ġloc":858,"velop":859,"aw":860,"erm":861,"Ġfin":862,"oll":863,"Ġcar":864,"Ġstart":865,"Ġnow":866,"Ġins":867,"Ġsuch":868,"uring":869,"rit":870,"Ġsec":871,"ath":872,"ract":873,"Ġrel":874,"Ġrequ":875,"Ġdesign":876,"Ġdown":877,"ward":878,"ts":879,"Ġright":880,"Ġhome":881,"ative":882,"ics":883,"air":884,"Ġbusiness":885,"Ġmuch":886,"der":887,"hes":888,"line":889,"Ġday":890,"Ġplay":891,"Ġgu":892,"ĠIf":893,"its":894,"Ġdiffe":895,"ty":896,"Ġinte":897,"Ġav":898,"Ġatt":899,"oy":900,"Ġsaid":901,"gan":902,"),":903,"pect":904,"ĠAs":905,"Ġdon":906,"ient":907,"ject":908,"Ġtake":909,"hip":910,"Ġexp":911,"Ġinformation":912,"arch":913,"Ġlong":914,"Ġbecause":915,"Ġread":916,"ener":917,"ident":918,"ĠUn":919,"Ġmin":920,"Ġbl":921,"ĠWh":922,"Ġtoo":923,"Ġche":924,"ell":925,"omm":926,"alth":927,"Ġused":928,"ob":929,"Ġdisc":930,"arket":931,"und":932,"Ġperson":933,"ited":934,"Ġsim":935,"Ġsystem":936,"Ġdevelop":937,"up":938,"Ġfam":939,"Ġmon":940,"ĠRe":941,"Ġmade":942,"chn":943,"Ġbr":944,"Ġprovid":945,"ustom":946,"Ġhere":947,"ove":948,"Ġcre":949,"Ġvis":950,"ality":951,"Ġprog":952,"Ġpres":953,"Ġ6":954,"Ġtrans":955,"cy":956,"Ġsur":957,"Ġass":958,"io":959,"Ġ&":960,"In":961,"other":962,"ied":963,"ash":964,"Ġbel":965,"Ġdoes":966,"rib":967,"chool":968,"Ġdid":969,"Ġbefore":970,"Ġshow":971,"Ġthose":972,"Ġcall":973,"Ġbeing":974,"Ġend":975,"ĠPro":976,"ner":977,"com":978,"Ġnum":979,"Ġworld":980,"ix":981,"Ġcomple":982,"Ġdet":983,"ually":984,"ĠAnd":985,"Ġ$":986,"Ġwee":987,"Ġeach":988,"rest":989,"Ġeas":990,"Ġhand":991,"ork":992,"ake":993,"Ġlife":994,"Ġform":995,"ata":996,"Ġmed":997,"Ġmem":998,"Ġsub":999,"Ġart":1000,"ric":1001,"ages":1002,"This":1003,"Ġbo":1004,"ues":1005,"Ġsupport":1006,"Ġinter":1007,"Ġlook":1008,"Ġcur":1009,"Ġagain":1010,"ouse":1011,"Ġop":1012,"led":1013,"ĠFor":1014,"way":1015,"ĠAn":1016,"Ġdifferent":1017,"arm":1018,"arn":1019,"We":1020,"Ġadv":1021,"az":1022,"Ġsk":1023,"ize":1024,"ank":1025,"kes":1026,"ional":1027,"Ġcustom":1028,"de":1029,"gg":1030,"ci":1031,"cept":1032,"Ġprocess":1033,"ros":1034,"ple":1035,"ines":1036,"Ġwhile":1037,"Ġaround":1038,"Ġcle":1039,"ives":1040,"land":1041,"ason":1042,"Ġstr":1043,"ince":1044,"olut":1045,"Ġmarket":1046,"ather":1047,"ave":1048,"ctions":1049,"Ġpost":1050,"ng":1051,"Ġaut":1052,"Ġ.":1053,"Ġcare":1054,"Ġprof":1055,"ale":1056,"Ġavail":1057,"Ġlead":1058,"Ġreally":1059,"self":1060,"lease":1061,"Ġlast":1062,"ves":1063,"Ġ200":1064,"Ġcommun":1065,"Ġlove":1066,"ollow":1067,"Ġret":1068,"ever":1069,"Ġloo":1070,"Ġplace":1071,"Ġfree":1072,"Ġgra":1073,"Ġed":1074,"Ġ7":1075,"atch":1076,"Ġchild":1077,"Ġ10":1078,"Ġprogram":1079,"Ġ8":1080,"ins":1081,"ene":1082,"Ġtechn":1083,"Ġteam":1084,"ways":1085,"Ġser":1086,"roup":1087,"Ġpur":1088,"Ġsign":1089,"ween":1090,"read":1091,"Ġlist":1092,"Ġusing":1093,"Ġfun":1094,"pr":1095,"Ġimport":1096,"irect":1097,"Ġcount":1098,"Ġpub":1099,"Ġcour":1100,"imes":1101,"ness":1102,"Ġhim":1103,"Ġsom":1104,"Ġtop":1105,"Ġsame":1106,"Ġboth":1107,"ĠAl":1108,"Ġext":1109,"ets":1110,"Ġthink":1111,"Ġlar":1112,"ĠDe":1113,"Ġfull":1114,"Ġfeel":1115,"Ġval":1116,"riend":1117,"Ġfound":1118,"oun":1119,"ten":1120,"Ġbetween":1121,"ĠSh":1122,"ining":1123,"Ġavailable":1124,"Ġstill":1125,"ature":1126,"ized":1127,"view":1128,"Ġvar":1129,"Ġservice":1130,"Ġlot":1131,"Ġchar":1132,"Ġplan":1133,"Ġopt":1134,"Ġpol":1135,"Ġthough":1136,"Ġgoing":1137,"ivers":1138,"Ġty":1139,"ired":1140,"Ġcompany":1141,"ffect":1142,"iqu":1143,"ĠNew":1144,"Ġide":1145,"Ġfew":1146,"Ġrun":1147,"Ġgener":1148,"less":1149,"Ġappro":1150,"ety":1151,"ittle":1152,"Ġfollow":1153,"ars":1154,"ĠThey":1155,"Ġcor":1156,"ants":1157,"Ġexperience":1158,"ov":1159,"Ġmain":1160,"Ġpoint":1161,"Ġdata":1162,"ology":1163,"ĠSe":1164,"uc":1165,"Ġposs":1166,"Ġresult":1167,"Ġkeep":1168,"Ġsmall":1169,"Ġhealth":1170,"Ġsl":1171,"Ġbuild":1172,"iving":1173,"Ġwater":1174,"ĠAr":1175,"Ġhapp":1176,"Ġpat":1177,"Ġallow":1178,"ering":1179,"Ġpartic":1180,"ĠBut":1181,"Ġreal":1182,"Ġob":1183,"Ġref":1184,"Ġmonth":1185,"Ġorgan":1186,"ital":1187,"Wh":1188,"Ġservices":1189,"Ġopen":1190,"Ġcent":1191,"ross":1192,"Ġalways":1193,"ĠSo":1194,"plo":1195,"ah":1196,"ware":1197,"Ġprovide":1198,"000":1199,"Ġ9":1200,"stand":1201,"Ġincluding":1202,"ĠCl":1203,"Ġinterest":1204,"ms":1205,"Ġthings":1206,"Ġsure":1207,"Ġpay":1208,"ĠThere":1209,"Ġpri":1210,"orth":1211,"Ġnumber":1212,"Ġduring":1213,"Ġdri":1214,"ically":1215,"bers":1216,"ural":1217,"Ġcost":1218,"aut":1219,"erg":1220,"Ġrest":1221,"ined":1222,"Ġfamily":1223,"ton":1224,"Ġthree":1225,"Ġwithout":1226,"Ġmust":1227,"thing":1228,"Ġstand":1229,"Ġfil":1230,"ug":1231,"Ġlittle":1232,"Ġint":1233,"Ġschool":1234,"Ġiss":1235,"Ġresp":1236,"Ġimportant":1237,"Ġcome":1238,"ĠAd":1239,"Ġbetter":1240,"Ġdef":1241,"Ġrece":1242,"ody":1243,"Ġperform":1244,"Ġfact":1245,"arly":1246,"ĠLe":1247,"Ġmod":1248,"It":1249,"ists":1250,"co":1251,"ield":1252,"Ġspec":1253,"Ġdist":1254,"Ġfriend":1255,"be":1256,"ething":1257,"Ġve":1258,"alk":1259,"Ġsay":1260,"Ġquest":1261,"Ġconf":1262,"ute":1263,"els":1264,"ished":1265,"ery":1266,"Ġclass":1267,"Ġpass":1268,"Ġproper":1269,"Ġconc":1270,"Ġable":1271,"Ġcontin":1272,"Ġlevel":1273,"Ġonline":1274,"man":1275,"Ġstate":1276,"If":1277,"Ġtry":1278,"Ġproble":1279,"Ġgroup":1280,"ling":1281,"Ġarea":1282,"Ġbra":1283,"ier":1284,"ĠHow":1285,"ients":1286,"ploy":1287,"reen":1288,"Ġwebs":1289,"Ġincre":1290,"Ġnext":1291,"con":1292,"orts":1293,"ention":1294,"ared":1295,"ĠCom":1296,"ock":1297,"Ġspecial":1298,"ĠBe":1299,"Ġaccess":1300,"Ġput":1301,"Ġlight":1302,"Ġgive":1303,"ately":1304,"Ġtri":1305,"au":1306,"oney":1307,"Ġsomething":1308,"Ġwithin":1309,"ĠPl":1310,"Ġopp":1311,"ertain":1312,"ien":1313,"meric":1314,"uss":1315,"ral":1316,"ccess":1317,"Ġmight":1318,"Ġanother":1319,"att":1320,"dition":1321,"me":1322,"ĠTe":1323,"Ġhard":1324,"Ġbig":1325,"Ġblo":1326,"ames":1327,"Ġorder":1328,"Ġmus":1329,"Ġsecond":1330,"Ġinf":1331,"ential":1332,"Ġquality":1333,"vern":1334,"ps":1335,"Ġcurrent":1336,"Ġeng":1337,"Ġlet":1338,"Ġwr":1339,"Ġi":1340,"Ġgrow":1341,"Ġsince":1342,"Ġdirect":1343,"ruct":1344,"Ġbook":1345,"ortun":1346,"Ġinvest":1347,"ffic":1348,"ards":1349,"oot":1350,"ior":1351,"pend":1352,"Ġpower":1353,"Ġrese":1354,"load":1355,"Ġoper":1356,"Ġhead":1357,"Ġcontro":1358,"Ġroom":1359,"Ġphot":1360,"rence":1361,"ĠOn":1362,"Ġaddition":1363,"Ġprofess":1364,"ĠEx":1365,"Ġest":1366,"Ġless":1367,"Ġdi":1368,"ĠInd":1369,"Ġtest":1370,"ours":1371,"eng":1372,"Ġvisit":1373,"joy":1374,"Ġcr":1375,"ration":1376,"Ġweek":1377,"Ġdays":1378,"ivid":1379,"Ġoffer":1380,"Ġequ":1381,"rist":1382,"Ġgl":1383,"Ġold":1384,"ision":1385,"Ġsite":1386,"Ġworking":1387,"Ġjo":1388,"ĠAmeric":1389,"Ġnever":1390,"Ġview":1391,"Ġapplic":1392,"Ġsit":1393,"ĠAll":1394,"ted":1395,"Ġbro":1396,"orn":1397,"ĠQ":1398,"ateg":1399,"Ġproducts":1400,"ium":1401,"ense":1402,"Ġmeet":1403,"Ġ'":1404,"Ġgame":1405,"Ġtoday":1406,"Ġgot":1407,"gin":1408,"ĠShe":1409,"Ġ20":1410,"ĠSp":1411,"here":1412,"oss":1413,"ote":1414,"Ġpresent":1415,"Ġpract":1416,"iversity":1417,"Ġlooking":1418,"ases":1419,"Ġbre":1420,"Ġfood":1421,"ified":1422,"Ġlocal":1423,"Ġprote":1424,"Ġfac":1425,"Ġintern":1426,"iron":1427,"ems":1428,"Ġpublic":1429,"Ġel":1430,"Ġstudents":1431,"ains":1432,"ĠâĢĺ":1433,"Ġgr":1434,"Ġmaking":1435,"Ġ12":1436,".\"":1437,"Ġlarge":1438,"You":1439,"Ġunderstand":1440,"room":1441,"Ġprom":1442,"Ġneeds":1443,"ĠIs":1444,"Ġprev":1445,"ently":1446,"agement":1447,"Ġwebsite":1448,"!!":1449,"Ġpop":1450,"ats":1451,"Ġmet":1452,"ator":1453,"Ġindust":1454,"ump":1455,"Ġbuy":1456,"cing":1457,"ird":1458,"ĠSc":1459,"pping":1460,"Ġproject":1461,"Ġsal":1462,"Ġeffect":1463,"Ġcheck":1464,"ability":1465,"ieve":1466,"Ġimpro":1467,"por":1468,"Ġcap":1469,"pos":1470,"ER":1471,"ised":1472,"Ġcomplete":1473,"Ġproduct":1474,"Ġchange":1475,"Ġfr":1476,"Ġca":1477,"orm":1478,"lection":1479,"Ġchildren":1480,"inal":1481,"Ġwin":1482,"ax":1483,"Ġair":1484,"Ġconst":1485,"ĠZ":1486,"Ġunt":1487,"Ġchang":1488,"ism":1489,"aterial":1490,"Ġevent":1491,"Ġeasy":1492,"ify":1493,"illion":1494,"ĠTo":1495,"ron":1496,"ider":1497,"Ġactiv":1498,"atter":1499,"Ġmoney":1500,"Ġenjoy":1501,"Ġsuccess":1502,"ample":1503,"Ġcreat":1504,"Ġtru":1505,"Ġbas":1506,"Ġcourse":1507,"port":1508,"ĠCon":1509,"Ġdev":1510,"ission":1511,"Ġcase":1512,"Ġlearn":1513,"outh":1514,"ĠPh":1515,"ills":1516,"the":1517,"ope":1518,"cl":1519,"ique":1520,"Ġconne":1521,"Ġ18":1522,"Ġlaw":1523,"Ġterm":1524,"10":1525,"ably":1526,"Ġann":1527,"tend":1528,"Ġreport":1529,"ĠFr":1530,".,":1531,"Ġemploy":1532,"50":1533,"ization":1534,"Ġturn":1535,"ode":1536,"bo":1537,"ann":1538,"itions":1539,"Ġhouse":1540,"ott":1541,"ĠCol":1542,"ocus":1543,"work":1544,"tain":1545,"of":1546,"Ġalong":1547,"Ġpar":1548,"ĠUS":1549,"Ġaway":1550,"ĠAt":1551,"Ġpossible":1552,"Ġdem":1553,"ids":1554,"ered":1555,"ush":1556,"ret":1557,"Ġpa":1558,"Ġoften":1559,"Ġbene":1560,"Ġtoget":1561,"Ġtogether":1562,"ury":1563,"ĠWith":1564,"aster":1565,"Ġpain":1566,"Ġtreat":1567,"Ġdetail":1568,"icle":1569,"utes":1570,"med":1571,"Ġname":1572,"aring":1573,"Ġuntil":1574,"Ġleg":1575,"Ġbeaut":1576,"Ġaccount":1577,"ern":1578,"Ġsing":1579,"pped":1580,"Ġbased":1581,"ries":1582,"lish":1583,"Ġindivid":1584,"ember":1585,"Ġhum":1586,"ĠBl":1587,"As":1588,"ream":1589,"Ġcreate":1590,"ex":1591,"Ġcontact":1592,"ogra":1593,"Ġpersonal":1594,"Ġbeh":1595,"Ġmaterial":1596,"let":1597,"part":1598,"ows":1599,"ising":1600,"ĠJo":1601,"ina":1602,"Ġhist":1603,"ories":1604,"ĠMan":1605,"iven":1606,"Ġwhy":1607,"itive":1608,"Ġdra":1609,"Ġvide":1610,"Ġtimes":1611,"min":1612,"Ġresearch":1613,"Ġcommunity":1614,"cent":1615,"Ġpot":1616,"olution":1617,"ĠRes":1618,"Ġinclude":1619,"Ġbenef":1620,"Ġhaving":1621,"Ġpast":1622,"ĠChrist":1623,"fer":1624,"Ġperfect":1625,"Ġkind":1626,"Ġagainst":1627,"soci":1628,"viron":1629,"Ġla":1630,"Ġfour":1631,"Ġask":1632,"ĠOr":1633,"Ġwrit":1634,"ken":1635,"Ġsoft":1636,"Ġworks":1637,"arent":1638,"Ġpage":1639,"Ġside":1640,"atures":1641,"Ġmar":1642,"lement":1643,"Ġexpect":1644,"Ġindividual":1645,"ĠWhen":1646,"side":1647,"ger":1648,"yle":1649,"âĢ¦":1650,"Ġelect":1651,"ffe":1652,"ĠThat":1653,"Ġrecord":1654,"ĠCent":1655,"ived":1656,"ination":1657,"Ġfocus":1658,"Ġcontrol":1659,",âĢĿ":1660,"hor":1661,"pecial":1662,"Ġrequire":1663,"Ġmeans":1664,"Ġbecome":1665,"Ġline":1666,"ĠCan":1667,"ley":1668,"ĠComm":1669,"Ġthing":1670,"Ġgovern":1671,"cu":1672,"aking":1673,"Ġopportun":1674,"Ġ0":1675,"...":1676,"ead":1677,"ency":1678,"br":1679,"ured":1680,"Ġmove":1681,"Ġword":1682,"Ġspecific":1683,"Ġdone":1684,"Ġmakes":1685,"Ġtem":1686,"Ġmult":1687,"âĢľ":1688,"Ġsever":1689,"Ġsw":1690,"ney":1691,"Ġnight":1692,"Ġclo":1693,"Ġprice":1694,"Ġmembers":1695,"Ġlim":1696,"ready":1697,"jor":1698,"Ġdevelopment":1699,"ding":1700,"Ġwom":1701,"ĠGod":1702,"uro":1703,"oice":1704,"ĠOur":1705,"Ġcou":1706,"Ġes":1707,"ik":1708,"Ġens":1709,"Ġtre":1710,"ands":1711,"Ġocc":1712,"Ġcertain":1713,"ane":1714,"uck":1715,"Ġnet":1716,"Ġreview":1717,"Ġshort":1718,"Ġcomes":1719,"Ġquick":1720,"Ġsocial":1721,"Ġnon":1722,"Ġlow":1723,"iting":1724,"ee":1725,"lling":1726,"Ġothers":1727,"Ġlive":1728,"Ġbody":1729,"Ġseveral":1730,"Ġeduc":1731,"Ġenough":1732,"Ġclean":1733,"uture":1734,"ĠWhat":1735,"oring":1736,"Ġhot":1737,"ript":1738,"Ġet":1739,"Ġvari":1740,"ĠCo":1741,"'re":1742,"Ġsol":1743,"oint":1744,"Ġalready":1745,"IN":1746,"Ġ15":1747,"Ġfund":1748,"Ġjob":1749,"anies":1750,"ĠTr":1751,"Ġacross":1752,"aff":1753,"Ġce":1754,"ĠâĢĶ":1755,"Ġtyp":1756,"Ġspace":1757,"Ġtool":1758,"Ġfav":1759,"vironment":1760,"Ġleft":1761,"Ġ30":1762,"ĠThese":1763,"ots":1764,"ĠUniversity":1765,"Ġpurch":1766,"ĠEng":1767,"Ġkey":1768,"20":1769,"Ġmusic":1770,"aim":1771,"itc":1772,"Ġvers":1773,"Ġgetting":1774,"Ġever":1775,"by":1776,"ĠNo":1777,"Ġredu":1778,"conom":1779,"urs":1780,"anks":1781,"Ġbit":1782,"Ġcountry":1783,"Ġpack":1784,"Ġanal":1785,"Ġbelow":1786,"rop":1787,"ances":1788,"Ġhig":1789,"âĢĶ":1790,"ither":1791,"Ġcover":1792,"Ġmind":1793,"Ġinstall":1794,"Ġhold":1795,"Ġshare":1796,"urther":1797,"Ġdeal":1798,"inc":1799,"Ġrange":1800,"Ġmajor":1801,"ethod":1802,"alf":1803,"Ġfar":1804,"Ġparticular":1805,"urity":1806,"30":1807,"ged":1808,"Ġexample":1809,"Ġfore":1810,"ides":1811,"ommend":1812,"ĠMar":1813,"ording":1814,"Ġoffers":1815,"Ġexpl":1816,"Ġcompet":1817,"Ġfuture":1818,"jects":1819,"Ġdoing":1820,"Ġorig":1821,"Ġindustry":1822,"Ġmean":1823,"wards":1824,"What":1825,"ĠMy":1826,"ully":1827,"Ġcomb":1828,"ift":1829,"Ġstep":1830,"ribut":1831,"Ġcity":1832,"iful":1833,"Ġboo":1834,"Ġdeli":1835,"Ġcamp":1836,"oose":1837,"For":1838,"Ġinvol":1839,"ograph":1840,"lf":1841,"Ġhours":1842,"Ġseason":1843,"Ġbring":1844,"Ġvalue":1845,"Ġident":1846,"Ġwind":1847,"Ġcompanies":1848,"Ġpriv":1849,"Ġleast":1850,"par":1851,"ilities":1852,"Ġstudy":1853,"Ġcalled":1854,"Ġonce":1855,"Ġstory":1856,"ilt":1857,"Ġproblem":1858,"Ġreturn":1859,"ĠAm":1860,"Ġ11":1861,"atic":1862,"ctor":1863,"most":1864,"Ġactually":1865,"ES":1866,"Ġrecommend":1867,"err":1868,"ON":1869,"Ġess":1870,"ai":1871,"Ġbed":1872,"urance":1873,"rodu":1874,"Ġstarted":1875,"Ġreason":1876,"ĠDo":1877,"ĠSu":1878,"Ġcustomers":1879,"cle":1880,"aces":1881,"'m":1882,"Ġaddress":1883,"Ġfeatures":1884,"Ġmil":1885,"He":1886,"ners":1887,"AT":1888,"Ġemail":1889,"Ġ2018":1890,"Ġamount":1891,"osed":1892,"Ġsum":1893,"Ġris":1894,"Ġpict":1895,"cell":1896,"light":1897,"ape":1898,"ster":1899,"There":1900,"iod":1901,"ĠCar":1902,"Ġpie":1903,"Ġbrand":1904,"ĠApp":1905,"Ġminutes":1906,"Ġfriends":1907,"19":1908,"'ve":1909,"enn":1910,"Ġport":1911,"Ġfield":1912,"ference":1913,"Ġcut":1914,"Ġresults":1915,"ĠHowever":1916,"Ġabove":1917,"ones":1918,"ource":1919,"Ġcontent":1920,"Ġrespons":1921,"Ġdidn":1922,"Ġchall":1923,"Ġstrong":1924,"resent":1925,"ford":1926,"Ġvol":1927,"Ġexc":1928,"fort":1929,"bal":1930,"Ġste":1931,"Ġtechnology":1932,"Ġclose":1933,"Ġmethod":1934,"Ġoffic":1935,"Ġbegin":1936,"Ġdiscuss":1937,"go":1938,"ancial":1939,"ĠRo":1940,"ĠIntern":1941,"Ġcharact":1942,"atural":1943,"Ġplease":1944,"Ġenvironment":1945,"ply":1946,"Ġprofessional":1947,"ources":1948,"Ġbuilding":1949,"Ġsuper":1950,"ledge":1951,"arning":1952,"Ġvideo":1953,"Ġdr":1954,"'ll":1955,"ĠTra":1956,"Ġwa":1957,"Ġdoesn":1958,"sh":1959,"app":1960,"ĠMay":1961,"AN":1962,"not":1963,"Ġsearch":1964,"uf":1965,"ĠServ":1966,"ino":1967,"Ġeverything":1968,"ulation":1969,"Ġtype":1970,"hn":1971,"Ġenc":1972,"Ġprovides":1973,"ister":1974,"Ġmonths":1975,"Ġquestions":1976,"Ġheart":1977,"lished":1978,"AR":1979,"Ġz":1980,"Ġflo":1981,"ĠX":1982,"Ġstay":1983,"Ġtot":1984,"Ġtax":1985,"ĠComp":1986,"Ġgiven":1987,"Ġknown":1988,"Ġrele":1989,"ĠSy":1990,"Ġmom":1991,"ĠÂ":1992,"Ġwon":1993,"Ġsound":1994,"icy":1995,"ians":1996,"over":1997,"Ġcra":1998,"St":1999,"sw":2000,"osp":2001,"Ġearly":2002,"Ġweb":2003,"Ġcred":2004,"Ġmen":2005,"idd":2006,"ips":2007,"ĠWor":2008,"unch":2009,"Ġyoung":2010,"Ġmillion":2011,"Ġwond":2012,"Ġyet":2013,"Ġmot":2014,"ĠPr":2015,"Ġdownload":2016,"Ġproperty":2017,"crib":2018,"Ġsimple":2019,"Ġtraining":2020,"Ġgovernment":2021,"cks":2022,"Ġimprove":2023,"ergy":2024,"Ġthought":2025,"Ġmanagement":2026,"ĠInst":2027,"ches":2028,"cted":2029,"Ġey":2030,"Ġcame":2031,"ental":2032,"hers":2033,"pecially":2034,"Ġtravel":2035,"Ġcal":2036,"Ġeconom":2037,"Ġ100":2038,"??":2039,"Ġ199":2040,"ibility":2041,"une":2042,"Ġsingle":2043,"An":2044,"Ġpress":2045,"Ġvarious":2046,"ĠFl":2047,"Ġissues":2048,"ges":2049,"Ġcard":2050,",\"":2051,"resh":2052,"Ġhope":2053,"Ġdue":2054,"Ġconsider":2055,"Ġareas":2056,"mber":2057,"Ġappear":2058,"ĠMed":2059,"ring":2060,"Ġrepl":2061,"Ġant":2062,"Ġperiod":2063,"irm":2064,"Ġrequired":2065,"Ġbeautiful":2066,"ww":2067,"Ġupd":2068,"uff":2069,"Ġfollowing":2070,"Ġsize":2071,"Ġtook":2072,"ĠGu":2073,"When":2074,"ensive":2075,"illed":2076,"ĠEn":2077,"wh":2078,"Ġhappen":2079,"rap":2080,"Ġcult":2081,"ĠOne":2082,"Ġnews":2083,"Ġbar":2084,"tt":2085,"asing":2086,"Ġcomput":2087,"ĠEuro":2088,"Ġwhether":2089,"How":2090,"eral":2091,"Ġsays":2092,"Ġdiff":2093,"Ġexperien":2094,"Ġunique":2095,"Ġwhole":2096,"fully":2097,"ored":2098,"Ġlater":2099,"omes":2100,"iday":2101,"201":2102,"ogn":2103,"ĠCont":2104,"acy":2105,"Ġcommon":2106,"book":2107,"vert":2108,"Ġmess":2109,"Ġtell":2110,"Ġmanag":2111,"Ġperformance":2112,"Ġele":2113,"aps":2114,"On":2115,"ume":2116,"abor":2117,"Ġexam":2118,"Ġliving":2119,"cript":2120,"Ġidea":2121,"Ġenergy":2122,"Ġtaking":2123,"Ġfurther":2124,"Ġ,":2125,"idence":2126,"Ġmeas":2127,"ufact":2128,"Ġstrateg":2129,"ĠAmerican":2130,"Ġaud":2131,"augh":2132,"Ġmedia":2133,"Ġdig":2134,"Ġtas":2135,"Ġparticip":2136,"ony":2137,"Ġstaff":2138,"gs":2139,"ler":2140,"Ġphys":2141,"Ġtable":2142,"Ġsomeone":2143,"Ġselect":2144,"play":2145,"ruction":2146,"Ġassist":2147,"Ġprob":2148,"urch":2149,"though":2150,"OR":2151,"Ġ16":2152,"Ġamong":2153,"Ġrelations":2154,"Ġauthor":2155,"ests":2156,"Ġfront":2157,"cer":2158,"Ġtal":2159,"Ġhuman":2160,"Ġpercent":2161,"astic":2162,"xim":2163,"12":2164,"Ġfre":2165,"Ġeither":2166,"mb":2167,"Ġnear":2168,"ĠSte":2169,"Ġdesigned":2170,"Ġseen":2171,"gr":2172,"Ġeffective":2173,"ites":2174,"ched":2175,"reet":2176,"Ġensure":2177,"icult":2178,"Ġnecess":2179,"Ġprovided":2180,"gle":2181,"Ġsn":2182,"Ġclaim":2183,"Ġprint":2184,"rict":2185,"ĠFe":2186,"Ġpotential":2187,"Ġcustomer":2188,"Ġchoose":2189,"ĠChe":2190,"Ġwent":2191,"Ġdocu":2192,"Ġeff":2193,"Ġwall":2194,"Ġage":2195,"lege":2196,"Ġ14":2197,"ided":2198,"lex":2199,"che":2200,"Ġoffice":2201,"aur":2202,"ls":2203,"Ġquite":2204,"Ġdam":2205,"Ġneeded":2206,"selves":2207,"Ġentire":2208,"Ġincludes":2209,"Ġach":2210,"ĠNe":2211,"Ġhost":2212,"Ġbelieve":2213,"Ġfive":2214,"Ġcond":2215,"ĠRep":2216,"irt":2217,"ĠDes":2218,"Ġoil":2219,"hing":2220,"Ġextra":2221,"Ġwomen":2222,"ication":2223,"Ġengine":2224,"Ġhistory":2225,"Ġsugg":2226,"Ġtext":2227,"nam":2228,"af":2229,"ĠYour":2230,"Ġsignific":2231,"Ġtour":2232,"itted":2233,"Ġwide":2234,"ĠBo":2235,"come":2236,"Ġquestion":2237,"Ġprep":2238,"Ġsoftware":2239,"iously":2240,"Ġsimply":2241,"ilar":2242,"ĠUnited":2243,"Ġespecially":2244,"Ġoptions":2245,"Ġfinancial":2246,"Ġfunction":2247,"pro":2248,"ables":2249,"Ġmag":2250,"Ġsystems":2251,"Ġbreak":2252,"rew":2253,"Ġmach":2254,"ued":2255,"nov":2256,"ification":2257,"Ġseries":2258,"ĠEurope":2259,"Ġexist":2260,"So":2261,"Ġyourself":2262,"ators":2263,"ained":2264,"Ġ24":2265,"imate":2266,"Ġglo":2267,"Ġland":2268,"inking":2269,"Ġcomfort":2270,"Ġcell":2271,"arr":2272,"Ġfavor":2273,"aching":2274,"Ġspend":2275,"son":2276,"Ġnatural":2277,"ires":2278,"Ġeveryone":2279,"Ġwriting":2280,"Ġknowledge":2281,"Ġface":2282,"Ġinit":2283,"Ġparent":2284,"Ġclear":2285,"AS":2286,"Ġcir":2287,"Ġdifficult":2288,"Ġsitu":2289,"gest":2290,"Ġetc":2291,"ĠCity":2292,"yl":2293,"ED":2294,"azing":2295,"Ġapplication":2296,"Ġideas":2297,"Ġfall":2298,"Ġevents":2299,"ises":2300,"Ġproblems":2301,"âĢĵ":2302,"Ġways":2303,"Ġgames":2304,"Ġpopular":2305,"Ġ/":2306,"Ġmoder":2307,"ops":2308,"Ġhalf":2309,"ili":2310,"Ġ2017":2311,"Ġself":2312,"Ġrepresent":2313,"Ġdeterm":2314,"Ġmiss":2315,"ĠMe":2316,"Ġphone":2317,"ĠJohn":2318,"Ġanything":2319,"Ġstyle":2320,"Ġalmost":2321,"Ġcolor":2322,"Ġwhite":2323,"itchen":2324,"ung":2325,"Ġclients":2326,"Ġveh":2327,"gra":2328,"Ġlikely":2329,"ief":2330,"ille":2331,"ĠSchool":2332,"Ġmodel":2333,"Ġpan":2334,"Ġsoon":2335,"back":2336,"ĠAust":2337,"ĠCount":2338,"Ġthird":2339,"Ġansw":2340,"ze":2341,"ĠAfter":2342,"ĠCal":2343,"iver":2344,"Ġpaper":2345,"Ġdou":2346,"Ġadded":2347,"Ġblack":2348,"Ġmor":2349,"Ġhowever":2350,"Ġhy":2351,"Ġdeb":2352,"Ġautom":2353,"Ġposition":2354,"angu":2355,"Ġabs":2356,"EN":2357,"IS":2358,"do":2359,"Ġregard":2360,"Ġdetails":2361,"Ġ25":2362,"Ġimpact":2363,"Ġcreated":2364,"Ġcrit":2365,"face":2366,"ĠMin":2367,"Ġ13":2368,"Ġseem":2369,"Ġreceive":2370,"ĠSouth":2371,"Ġtaken":2372,"pper":2373,"Ġwatch":2374,"Ġmanufact":2375,"anced":2376,"Ġ50":2377,"ibr":2378,"Ġsignificant":2379,"ball":2380,"Ġchanges":2381,"Ġthroughout":2382,"11":2383,"olutions":2384,".âĢĿ":2385,"ux":2386,"vent":2387,"Ġsend":2388,"Ġagree":2389,"ees":2390,"Ġsecurity":2391,"Ġinsurance":2392,"Ġconsum":2393,"Ġaccept":2394,"Ġlearning":2395,"Ġ17":2396,"Ġpick":2397,"Ġfail":2398,"To":2399,"Ġroad":2400,"Ġfoot":2401,"Ġforward":2402,"Ġincrease":2403,"itch":2404,"IT":2405,"Ġrelationship":2406,"Ġred":2407,"Ġfeature":2408,"atur":2409,"ĠNorth":2410,"Ġready":2411,"Ġissue":2412,"new":2413,"oid":2414,"umb":2415,"Ġopportunity":2416,"ipment":2417,"Ġ[":2418,"Ġcoll":2419,"ok":2420,"ĠState":2421,"Ġago":2422,"Ġbox":2423,"Ġstruct":2424,"Ġsafe":2425,"Ġtreatment":2426,"Ġrisk":2427,"Ġfit":2428,"elt":2429,"ights":2430,"Ġfast":2431,"Ġtrack":2432,"Ġassoci":2433,"rown":2434,"Ġwonder":2435,"Ġuser":2436,"Ġsho":2437,"val":2438,"Ã©":2439,"Ġdepend":2440,"etimes":2441,"time":2442,"Ġlay":2443,"Ġestab":2444,"Ġlink":2445,"ison":2446,"Ġusers":2447,"Ġdefin":2448,"uge":2449,"Ġstra":2450,"iple":2451,"where":2452,"Ġrather":2453,"Ġfire":2454,"Ġlocated":2455,"ĠIm":2456,"Ġparty":2457,"Ġ2019":2458,"ĠNational":2459,"ĠGra":2460,"opy":2461,"Ġwood":2462,"verage":2463,"Ġbad":2464,"Ġtakes":2465,"Ġusually":2466,"Our":2467,"Ġtalk":2468,"Ġrate":2469,"Ġtradition":2470,"ĠBr":2471,"Ġlat":2472,"reme":2473,"ĠNot":2474,"Ġut":2475,"Ġpret":2476,"apt":2477,"Ġtou":2478,"Ġmob":2479,"Ch":2480,"Ġeducation":2481,"Ġdate":2482,"Ġsales":2483,"ried":2484,"AL":2485,"Ġsent":2486,"Ġmatter":2487,"Ġdel":2488,"Ġcoming":2489,"Ġregular":2490,"Ġprobably":2491,"Ġskills":2492,"Ġcontinue":2493,"Ġjour":2494,"Ġda":2495,"Ġelse":2496,"Ġadditional":2497,"icro":2498,"Ġskin":2499,"Ġwalk":2500,"Ġcurrently":2501,"Ġhigher":2502,"eter":2503,"Ġtrying":2504,"Ġoutside":2505,"Ġcredit":2506,"Ġactivities":2507,"Ġblog":2508,"Ġhappy":2509,"medi":2510,"oon":2511,"ival":2512,"Ġfilm":2513,"Ġ2016":2514,"Ġnice":2515,"ules":2516,"Ġinfl":2517,"Ġpolit":2518,"Ġstore":2519,"Ġinsp":2520,"Ġimage":2521,"Ġpoints":2522,"arget":2523,"put":2524,"IC":2525,"ĠGo":2526,"Ġsimilar":2527,"oura":2528,"Ġrecogn":2529,"ĠÐ":2530,"itut":2531,"istic":2532,"15":2533,"Ġitems":2534,"Ġmember":2535,"Ġeasily":2536,"Ġcorre":2537,"Ġrole":2538,"Ġwanted":2539,"Ġfile":2540,"Ġbott":2541,"atform":2542,"Ġstat":2543,"used":2544,"Ġexcell":2545,"Ġattend":2546,"Ġprivate":2547,"Ġfinal":2548,"Ġversion":2549,"Ġisn":2550,"Ġpractice":2551,"Ġcharacter":2552,"rie":2553,"AC":2554,"Ġkids":2555,"Ġsuggest":2556,"Ġpretty":2557,"Ġreceived":2558,"era":2559,"ĠAg":2560,"Ġsle":2561,"Ġinside":2562,"Ġoriginal":2563,"head":2564,"itting":2565,"Ġtotal":2566,"Ġprojects":2567,"Ġbuilt":2568,"Ġvia":2569,"Ġcannot":2570,"Ġeffic":2571,"Ġaction":2572,"Ġdrive":2573,"minist":2574,"izing":2575,"Ġaccording":2576,"itor":2577,"ĠPart":2578,"And":2579,"dd":2580,"ĠWorld":2581,"idge":2582,"Ġlonger":2583,"ĠQu":2584,"Ġapply":2585,"ĠSec":2586,"Ġrunning":2587,"ĠYork":2588,"airs":2589,"itten":2590,"Ġstandard":2591,"hib":2592,"inks":2593,"Ġgeneral":2594,"action":2595,"Ġchoice":2596,"Ġgrowth":2597,"Ġexact":2598,"mit":2599,"Ġswe":2600,"Ġtrue":2601,"empt":2602,"aving":2603,"Ġvariety":2604,"Ġhol":2605,"Ġcoun":2606,"Ġprior":2607,"ĠInc":2608,"ha":2609,"oud":2610,"Ġrespect":2611,"Ġground":2612,"ada":2613,"Ġdom":2614,"Ġmarketing":2615,"ĠApr":2616,"ĠHis":2617,"Ġconcern":2618,"ĠPer":2619,"ĠPe":2620,"ression":2621,"Ġamazing":2622,"Ġoption":2623,"ĠJan":2624,"Ġallows":2625,"Ġheld":2626,"aced":2627,"Ġbase":2628,"ĠSm":2629,"Ġcollect":2630,"Ġaf":2631,"ĠAf":2632,"Ġworth":2633,"Ġloss":2634,"Ġsave":2635,"Ġwords":2636,"Ġshows":2637,"Ġrequest":2638,"Ġbehind":2639,"Ġsix":2640,"Ġofficial":2641,"Ġanim":2642,"Ġtold":2643,"Ġnetwork":2644,"Ġupon":2645,"Ġleave":2646,"Ġneg":2647,"isc":2648,"Ġbal":2649,"ĠTH":2650,"pri":2651,"ĠPark":2652,"Ġmodern":2653,"Ġdeg":2654,"ana":2655,"Ġrecent":2656,"Ġill":2657,"Ġquickly":2658,"Ġweeks":2659,"Ġincluded":2660,"Ġshall":2661,"Ġsens":2662,"Ġtown":2663,"Ġhon":2664,"ĠDr":2665,"Ġcool":2666,"RE":2667,"ground":2668,"oogle":2669,"Ġx":2670,"25":2671,"Ġproduction":2672,"Ġmaterials":2673,"Ġrelated":2674,"Ġcomputer":2675,"ĠStud":2676,"Ġcode":2677,"Ġstop":2678,"Ġarticle":2679,"Ġcosts":2680,"aining":2681,"Ġrad":2682,"Ġsun":2683,"ĠSome":2684,"Ġlocation":2685,"Ġproviding":2686,"Ġpatients":2687,"Ġapproach":2688,"Ġreading":2689,"Ġmix":2690,"Ġintrodu":2691,"ceed":2692,"aging":2693,"Ġemb":2694,"ming":2695,"Ġinde":2696,"Ġteac":2697,"Ġannoun":2698,"reg":2699,"ĠJust":2700,"erc":2701,"Ġmedical":2702,"Ġlatest":2703,"wor":2704,"ecut":2705,"Ġnecessary":2706,"ĠKe":2707,"ublic":2708,"ĠStates":2709,"icles":2710,"Ġlangu":2711,"ysis":2712,"ox":2713,"na":2714,"Al":2715,"With":2716,"Ġpurchase":2717,"atory":2718,"ĠPar":2719,"Ġconditions":2720,"Ġcouple":2721,"Ġability":2722,"based":2723,"rs":2724,"Ġcele":2725,"ĠBy":2726,"Ġdisplay":2727,"Ġbooks":2728,"Ġprograms":2729,"ĠDep":2730,"iring":2731,"my":2732,"ipe":2733,"just":2734,"Ġfram":2735,"Ġsell":2736,"Ġmaintain":2737,"Ġpolicy":2738,"But":2739,"Ġfeed":2740,"Ġsaf":2741,"Ġsat":2742,"oph":2743,"Ġlit":2744,"arth":2745,"akes":2746,"Ġterms":2747,"Ġlower":2748,"ĠTw":2749,"18":2750,"Ġstri":2751,"Ġnorm":2752,"Ġdest":2753,"Ġclick":2754,"Ġequipment":2755,"Ġworked":2756,"Ġbi":2757,"Ġanyone":2758,"60":2759,"Ġplatform":2760,"ĠBar":2761,"ĠPres":2762,"urg":2763,"Ġstock":2764,"Ġprim":2765,"ĠReg":2766,"Ġinternational":2767,"ĠHigh":2768,"pose":2769,"Ġ2015":2770,"Ġsummer":2771,"cil":2772,"Ġlooks":2773,"Ġseems":2774,"Ġflow":2775,"ively":2776,"Ġlives":2777,"ĠGe":2778,"ening":2779,"Ġarri":2780,"ĠCor":2781,"bor":2782,"Ġparts":2783,"Ġnothing":2784,"iam":2785,"Ġrecently":2786,"ham":2787,"Ġdraw":2788,"Ġgen":2789,"Ġsolution":2790,"Ġ#":2791,"ĠCenter":2792,"Ġleaders":2793,"Ġcause":2794,"Ġtypes":2795,"Ġscreen":2796,"Ġkitchen":2797,"Ġtools":2798,"Ġtarget":2799,"hold":2800,"Ġboard":2801,"Ġcontract":2802,"Ġfig":2803,"Ġstudent":2804,"adem":2805,"ĠBu":2806,"anc":2807,"Ġarr":2808,"Ġchalleng":2809,"erve":2810,"ĠBra":2811,"Ġple":2812,"Ġbud":2813,"Ðµ":2814,"Ġsong":2815,"Ġsche":2816,"ĠAustral":2817,"Ġgoal":2818,"Ġvi":2819,"ese":2820,"Ġbath":2821,"Ġlevels":2822,"Ġdescrib":2823,"ĠApril":2824,"Ġdeep":2825,"Ġdoor":2826,"Ġweight":2827,"ĠWill":2828,"Ġplant":2829,"Ġsett":2830,"Ġmeeting":2831,"Ġsubject":2832,"Ġhair":2833,"Ġhighly":2834,"ĠPre":2835,"ooking":2836,"nds":2837,"Ġdevice":2838,"Ġones":2839,"//":2840,"orage":2841,"Ġcy":2842,"Ġpers":2843,"Ġrent":2844,"Ġcam":2845,"Ġfresh":2846,"Ġexpert":2847,"ĠNow":2848,"ĠCounty":2849,"ĠUK":2850,"Ġcollection":2851,"ters":2852,"ky":2853,"Ġbenefits":2854,"Ġsto":2855,"icated":2856,"Ġspeak":2857,"Ġexcellent":2858,"irit":2859,"ached":2860,"Ġsqu":2861,"ĠPlease":2862,"ĠWest":2863,"Ġasked":2864,"Ġmoment":2865,"Ġtit":2866,"Ġmov":2867,"iddle":2868,"Ġsale":2869,"ĠAb":2870,"Ġclos":2871,"Ġfa":2872,"Ġcook":2873,"Ġleading":2874,"inary":2875,"lier":2876,"Ġsepar":2877,"Ġcondition":2878,"Ġsolutions":2879,"Ġtrust":2880,"Ġmobile":2881,"Ġinj":2882,"Ġfavorite":2883,"Ġsense":2884,"mas":2885,"Ġexplo":2886,"ension":2887,"nal":2888,"Ġplans":2889,"Ġmass":2890,"sing":2891,"ĠMc":2892,"ession":2893,"Ġball":2894,"Ġencoura":2895,"Ġresources":2896,"Ġdecision":2897,"ples":2898,"Ġinvolved":2899,"Ġspeed":2900,"iet":2901,"Ġnational":2902,"Ġarch":2903,"Ġregist":2904,"ĠOff":2905,"Ġimplement":2906,"ĠAir":2907,"ĠJu":2908,"Ġdigital":2909,"Ġitself":2910,"Ġmatch":2911,"ma":2912,"irth":2913,"Ġcommer":2914,"ĠDon":2915,"Ġimmedi":2916,"reng":2917,"Ġround":2918,"40":2919,"Ġminim":2920,"Ġchance":2921,"OS":2922,"Ġcand":2923,"Ġ198":2924,"cription":2925,"earch":2926,"sy":2927,"Ġcountries":2928,"year":2929,"like":2930,"At":2931,"ĠEm":2932,"gu":2933,"Ġrout":2934,"Ġcases":2935,"Re":2936,"Ġ40":2937,"Ġsafety":2938,"ffects":2939,"Ġgives":2940,"ivity":2941,"uary":2942,"Ġobs":2943,"Ġsection":2944,"OT":2945,"Ġenter":2946,"ological":2947,"ĠMarch":2948,"aby":2949,"Ġdirectly":2950,"Ġdaily":2951,"ĠWhile":2952,"ging":2953,"Ġqual":2954,"Ġinstead":2955,"Ġthemselves":2956,"ishing":2957,"\".":2958,"Ġmount":2959,"now":2960,"Ġhelps":2961,"ĠOct":2962,"Ġsmo":2963,"Ġsource":2964,"Ġlate":2965,"ĠVal":2966,"Ġmorning":2967,"Ġprotect":2968,"Ġgir":2969,"Ġ2014":2970,"Ġimages":2971,"Ġwrite":2972,"My":2973,"Ġaverage":2974,"itely":2975,"200":2976,"Ġessential":2977,"ĠWind":2978,"Ġhuge":2979,"wood":2980,"Ġcas":2981,"--":2982,"Ġmultiple":2983,"ĠArt":2984,"Ġfix":2985,"Ġwritten":2986,"OU":2987,"lim":2988,"ĠFin":2989,"Ġpiece":2990,"arden":2991,"Ġprices":2992,"Ġcareer":2993,"Ġcert":2994,"ĠAct":2995,"All":2996,"://":2997,"Ġexcept":2998,"Ġdocument":2999,"ĠPol":3000,"arter":3001,"onst":3002,"ĠSw":3003,"Ġlic":3004,"âĢĿ.":3005,"Ð¾":3006,"Ġattention":3007,"ĠAut":3008,"Ġrequirements":3009,"Ġfully":3010,"Ġinnov":3011,"16":3012,"cast":3013,"Ġrestaur":3014,"Ġglobal":3015,"Ġgiving":3016,"Ġtouch":3017,"hood":3018,"Ġlegal":3019,"Ġlif":3020,"Ġcenter":3021,"Ġded":3022,"ĠEd":3023,"dule":3024,"Ġremember":3025,"Ġsaw":3026,"nes":3027,"illing":3028,"aign":3029,"ĠGr":3030,"Ġinteresting":3031,"Ġear":3032,"Ġaw":3033,"board":3034,"ĠDay":3035,"sc":3036,"asons":3037,"Ġcommercial":3038,"Ġfloor":3039,"Ġparents":3040,"Ġhands":3041,"Ġplanning":3042,"Ġdeath":3043,"Ġplayers":3044,"iding":3045,"Ġorganization":3046,"Ġsil":3047,"Ġimm":3048,"Ġmention":3049,"AM":3050,"Ġfurn":3051,"erous":3052,"Ġextreme":3053,"ĠAmerica":3054,"Ġcondu":3055,"Ġri":3056,"iture":3057,"Ġphotos":3058,"bit":3059,"ĠHealth":3060,"Ġcommit":3061,"atives":3062,"hern":3063,"Ġgreen":3064,"fl":3065,"14":3066,"itation":3067,"edding":3068,"Ġcompletely":3069,"Ġpath":3070,"Ġdise":3071,"Ġdecided":3072,"ude":3073,"Ġlost":3074,"13":3075,"Ġtrip":3076,"Ġcomplex":3077,"17":3078,"Ġstreng":3079,"Ġachieve":3080,"Ġgroups":3081,"ker":3082,"roll":3083,"Ġdeliver":3084,"Ġmyself":3085,"ĠInt":3086,"Ġtraditional":3087,"isf":3088,"ondon":3089,"onse":3090,"Ġpositive":3091,"ĠHouse":3092,"ĠPa":3093,"Ġdep":3094,"Ġconcept":3095,"ĠGoogle":3096,"Ġplaying":3097,"verse":3098,"Ġlab":3099,"Ġanswer":3100,"Ġreach":3101,"Ġprevent":3102,"Ġsubst":3103,"Ġsurpr":3104,"idered":3105,"Ġsites":3106,"ĠRec":3107,"aged":3108,"itable":3109,"Ġaffect":3110,"ober":3111,"vey":3112,"Ġdeveloped":3113,"Ġattack":3114,"aves":3115,"ĠInternational":3116,"wise":3117,"Ġgoes":3118,"avy":3119,"ole":3120,"izes":3121,"haps":3122,"ĠAfric":3123,"Ġcreating":3124,"Ġcirc":3125,"Ġwel":3126,"ressed":3127,"Ġpicture":3128,"aches":3129,"Ġprem":3130,"Ġclient":3131,"Ġconsult":3132,"Ġwarm":3133,"su":3134,"enty":3135,"eal":3136,"gy":3137,"uel":3138,"ences":3139,"hel":3140,"Ġgradu":3141,"ĠSept":3142,"ades":3143,"mon":3144,"isions":3145,"Ġapplications":3146,"Ġmachine":3147,"org":3148,"Ġaware":3149,"Ġconsist":3150,"amb":3151,"Ġlimited":3152,"Ġsuccessful":3153,"ĠJune":3154,"Ġblock":3155,"Ġglass":3156,"Ġgold":3157,"iff":3158,"Ġcross":3159,"ought":3160,"ĠFrom":3161,"igation":3162,"ĠHer":3163,"Ġ2013":3164,"Ġinstru":3165,"Ġbusinesses":3166,"Ġpartners":3167,"Ġrelease":3168,"arant":3169,"usion":3170,"ĠMore":3171,"ĠEnglish":3172,"Ġobtain":3173,"Ġcorrect":3174,"Ġvehicle":3175,"ĠAssoci":3176,"Ġ--":3177,"ĠOf":3178,"ties":3179,"ĠAug":3180,"Ġdry":3181,"urb":3182,"Ġcat":3183,"Ġtowards":3184,"Ġinterested":3185,"Ġlanguage":3186,"mission":3187,"lied":3188,"One":3189,"Ġbecame":3190,"Ġemployees":3191,"idents":3192,"ilies":3193,"Ġep":3194,"Ġthinking":3195,"Ġnature":3196,"uses":3197,"ption":3198,"Ġrights":3199,"Ġanalysis":3200,"Ġhear":3201,"Ġcelebr":3202,"Ġrev":3203,"Ġexpected":3204,"agn":3205,"ĠEl":3206,"Ġprofession":3207,"iction":3208,"hest":3209,"Ġconnect":3210,"Ġpred":3211,"iles":3212,"Be":3213,"Ġobject":3214,"Ġindividuals":3215,"Ġwal":3216,"Ġdru":3217,"ĠDis":3218,"Ġpromot":3219,"ĠIndia":3220,"ĠAc":3221,"Ġheat":3222,"pre":3223,"Ġfirm":3224,"Ġbudget":3225,"artment":3226,"Ġadvant":3227,"Ġwish":3228,"Ġmat":3229,"Do":3230,"Ġbegan":3231,"Ġfair":3232,"Ġattempt":3233,"yond":3234,"Ġbag":3235,"enge":3236,"Ġstorage":3237,"ama":3238,"usiness":3239,"Ġsold":3240,"Ġoffe":3241,"Ġplaces":3242,"Ġ:":3243,"Ġfine":3244,"ĠThen":3245,"Ġavoid":3246,"Ġsometimes":3247,"Ġnote":3248,"Ġearn":3249,"Ġtick":3250,"Ġsupply":3251,"ĠDirect":3252,"Ġphysical":3253,"Ġpropos":3254,"Ġwonderful":3255,"cies":3256,"Ġgar":3257,"ĠSan":3258,"Ġdepart":3259,"ĠTV":3260,"Ġhit":3261,"Ġconsidered":3262,"ĠHar":3263,"ĠLondon":3264,"Ġcampaign":3265,"Ġhous":3266,"Ġcarry":3267,"ĠAcc":3268,"Ð°":3269,"ĠDesign":3270,"ĠChina":3271,"Ġassess":3272,"Ġopportunities":3273,"ĠFace":3274,"EC":3275,"Ġdiv":3276,"ara":3277,"Ġadminist":3278,"Ġconstruction":3279,"ville":3280,"ĠGerm":3281,"Ġcopy":3282,"Ġunderstanding":3283,"Ġload":3284,"Ġcourt":3285,"Ġaim":3286,"rought":3287,"Ġstarting":3288,"ĠMon":3289,"Ġemerg":3290,"Ġprec":3291,"ĠHere":3292,"aly":3293,"ĠFeb":3294,"oming":3295,"Ġwar":3296,"Ġfab":3297,"OM":3298,"ĠHome":3299,"Ġge":3300,"Ġorganiz":3301,"Ġinflu":3302,"Ġexactly":3303,"Ġhour":3304,"ales":3305,"ĠBrit":3306,"vant":3307,"uth":3308,"rast":3309,"ĠBlack":3310,"Ġdefinitely":3311,"Ġmoving":3312,"Ġcash":3313,"Ġposted":3314,"Ġregion":3315,"reci":3316,"ica":3317,"Ġgrowing":3318,"24":3319,"zy":3320,"Ġformer":3321,"ications":3322,"Ġwrong":3323,"Ġfarm":3324,"Ġpattern":3325,"Ġdecor":3326,"Ġvac":3327,"Ġregul":3328,"mm":3329,"ruit":3330,"Ġdream":3331,"Ġphoto":3332,"Ġaltern":3333,"Ġappropri":3334,"Ġ21":3335,"After":3336,"ST":3337,"ibly":3338,"Ġhealthy":3339,"Ġblood":3340,"ashing":3341,"Ġ2012":3342,"Ġpurpose":3343,"chan":3344,"Ġhor":3345,"Ġgoals":3346,"ĠService":3347,"Ġmid":3348,"alu":3349,"Ġinvestment":3350,"ĠPresident":3351,"off":3352,"Ġtemper":3353,"apan":3354,"ĠMus":3355,"Ġactivity":3356,"Ġsituation":3357,"Ġweeke":3358,"ĠCoun":3359,"ĠChristmas":3360,"Ġdire":3361,"ari":3362,"ĠGroup":3363,"Ġprevious":3364,"Ġsleep":3365,"Ġentry":3366,"olute":3367,"ĠNet":3368,"Ġdifference":3369,"ĠDav":3370,"Ġmother":3371,"Ġli":3372,"ek":3373,"Ġmessage":3374,"iforn":3375,"Ġguide":3376,"Ġeye":3377,"ĠJuly":3378,"ĠGl":3379,"ength":3380,"Sh":3381,"Ġcapt":3382,"itute":3383,"Ġeffort":3384,"gar":3385,"ny":3386,"rences":3387,"ĠJanuary":3388,"Ġgets":3389,"ĠAN":3390,"Ġapart":3391,"ET":3392,"ester":3393,"Ġconvers":3394,"ĠWar":3395,"Ġtele":3396,"Ġdamage":3397,"Ġled":3398,"Ġdark":3399,"ĠBro":3400,"Ġpictures":3401,"ederal":3402,"Ġsubs":3403,"Ġacqu":3404,"Ġten":3405,"Ġenh":3406,"Ġcateg":3407,"Ġresponse":3408,"Ġpublished":3409,"Ġbroad":3410,"Ġanaly":3411,"Ġslow":3412,"Ġuses":3413,"Ġneigh":3414,"ĠRed":3415,"Ġwait":3416,"Ġexerc":3417,"Ġbenefit":3418,"Ġcontain":3419,"Ġfelt":3420,"ĠSer":3421,"raft":3422,"Ġafford":3423,"aries":3424,"ING":3425,"Ġoffering":3426,"key":3427,"ĠSund":3428,"ĠSim":3429,"Ġ22":3430,"ett":3431,"ifornia":3432,"iling":3433,"Ġfrequ":3434,"ĠAlso":3435,"Ġaward":3436,"cember":3437,"right":3438,"Ġspot":3439,"gram":3440,"antly":3441,"ĠJes":3442,"70":3443,"Ġinternet":3444,"Ġcompon":3445,"ida":3446,"Ġintegr":3447,"mat":3448,"Ġbur":3449,"Ġhotel":3450,"Ġbehav":3451,"ĠMr":3452,"Ġsatisf":3453,"Ġbank":3454,"ography":3455,"Ġaccom":3456,"Ġgas":3457,"Ġfamilies":3458,"Ġcontribut":3459,"Ġult":3460,"Ġbirth":3461,"Ġpaid":3462,"PS":3463,"Ġpressure":3464,"ĠOctober":3465,"80":3466,"uk":3467,"Ġsus":3468,"Ġpages":3469,"ague":3470,"ovember":3471,"Ġreplace":3472,"ĠSeptember":3473,"lin":3474,"Ġexecut":3475,"Ġclub":3476,"Ġsmart":3477,"Ġproced":3478,"EL":3479,"pects":3480,"Ġjud":3481,"Ġroll":3482,"pa":3483,"Ġeasier":3484,"ĠCons":3485,"Ġeat":3486,"orge":3487,"ses":3488,"band":3489,"Ġpolitical":3490,"Ġpull":3491,"ĠCommun":3492,"Ġdevices":3493,"Ġhosp":3494,"ĠDepartment":3495,"ĠFriday":3496,"Ġsurround":3497,"cul":3498,"Ġreduce":3499,"ĠServices":3500,"Ġhistor":3501,"tee":3502,"Ġexperienced":3503,"Ġlog":3504,"ams":3505,"Ġrates":3506,"ĠGreat":3507,"Ġserve":3508,"porate":3509,"ecause":3510,"Ġmark":3511,"Ġviol":3512,"attle":3513,"ĠCour":3514,"Ġbasis":3515,"Ġloved":3516,"Ġstuff":3517,"ares":3518,"ĠFree":3519,"Ġcertainly":3520,"ĠMost":3521,"rial":3522,"Ġfight":3523,"Ġmaxim":3524,"Ġshop":3525,"Ġstage":3526,"sequ":3527,"Ġadvert":3528,"Ġowners":3529,"ĠEvery":3530,"Ġadult":3531,"IL":3532,"Ġpool":3533,"Ġoffered":3534,"Ġstru":3535,"Ġeffects":3536,"Ġadvice":3537,"ID":3538,"amed":3539,"icate":3540,"Ġtransfer":3541,"rate":3542,"Ġwasn":3543,"ĠChar":3544,"anch":3545,"Ġdistribut":3546,"ĠFacebook":3547,"Ġadjust":3548,"error":3549,"zz":3550,"Ġgave":3551,"arily":3552,"Ġreleased":3553,"ira":3554,"Ġschools":3555,"Ġfeeling":3556,"Ġcharge":3557,"Ġhtt":3558,"ĠTechn":3559,"Ġactive":3560,"Ġinitial":3561,"ĠPat":3562,"ded":3563,"Ġnut":3564,"Ġdelivery":3565,"ronic":3566,"Ġver":3567,"Ġoverall":3568,"Ġsurface":3569,"Ġlots":3570,"Ġprefer":3571,"Ġguarant":3572,"Ġdefe":3573,"urt":3574,"oms":3575,"ĠAre":3576,"place":3577,"Ġindepend":3578,"Ġ60":3579,"ancy":3580,"Ġappreci":3581,"Ph":3582,"Ġspent":3583,"aturday":3584,"Ġfeet":3585,"formation":3586,"Ġunit":3587,"Ġexisting":3588,"ĠKing":3589,"Ġregarding":3590,"rench":3591,"ashion":3592,"Ġcomment":3593,"Ġdemand":3594,"ĠGener":3595,"AP":3596,"Ġshown":3597,"Ġculture":3598,"Ġlack":3599,"Ġtrade":3600,"Ġimag":3601,"Ġbasic":3602,"ĠIN":3603,"Ġoccur":3604,"EO":3605,"'d":3606,"het":3607,"Ġuseful":3608,"house":3609,"ressive":3610,"Ġreported":3611,"Ġtransport":3612,"ĠThanks":3613,"ĠCompany":3614,"pite":3615,"ĠJapan":3616,"Ġdog":3617,"ĠLa":3618,"word":3619,"Ġtruly":3620,"itary":3621,"Ġoptim":3622,"ĠDecember":3623,"ĠCalifornia":3624,"oday":3625,"Ġreve":3626,"ils":3627,"ipping":3628,"Ġincreasing":3629,"Ġinterview":3630,"Ġhomes":3631,"99":3632,"Ġcab":3633,"Ġter":3634,"Ġextend":3635,"Ġtried":3636,"Ġassociated":3637,"Ġheard":3638,"Ġgift":3639,"sp":3640,"Ġmeasure":3641,"Ġappoint":3642,"Ġbeyond":3643,"Ġdegree":3644,"Ġincreased":3645,"Ġbeginning":3646,"Ġeconomic":3647,"ibrary":3648,"ris":3649,"aint":3650,"vis":3651,"change":3652,"Ġsetting":3653,"Ġfiles":3654,"Ġcomfortable":3655,"ĠNovember":3656,"ĠSystem":3657,"des":3658,"ĠLet":3659,"23":3660,"Ġaff":3661,"Ġ23":3662,"unt":3663,"Ġbrought":3664,"Ġplayed":3665,"Ġdy":3666,"Ġstories":3667,"ĠAugust":3668,"ĠMich":3669,"Ġpatient":3670,"ĠĠ":3671,"Ġaccur":3672,"ĠJesus":3673,"Ġresponsible":3674,"Ġmanufacture":3675,"inner":3676,"Ġrepair":3677,"ube":3678,"wide":3679,"vest":3680,"Ġing":3681,"Ġjoin":3682,"Ġeyes":3683,"erved":3684,"Ġband":3685,"olf":3686,"ĠFirst":3687,"Ġrespond":3688,"Ġideal":3689,"set":3690,"Ġpayment":3691,"Ġhighest":3692,"Ġwedding":3693,"Ġspirit":3694,"ĠTrans":3695,"Ġstress":3696,"ĠEven":3697,"Ġproduce":3698,"icks":3699,"sych":3700,"Cl":3701,"istry":3702,"Ġcompleted":3703,"useum":3704,"iced":3705,"etic":3706,"Ex":3707,"Ġmeaning":3708,"lies":3709,"ruary":3710,"Ġble":3711,"itect":3712,"Ġcollege":3713,"Ġ2011":3714,"ffee":3715,"Ġimmediately":3716,"Ġparticularly":3717,"ĠEast":3718,"ka":3719,"Ġstructure":3720,"aks":3721,"door":3722,"ĠÂ£":3723,"Ġund":3724,"Ġappropriate":3725,"umn":3726,"ĠSunday":3727,"mitted":3728,"Ġlargest":3729,"Ġweekend":3730,"idential":3731,"That":3732,"ager":3733,"ĠCollege":3734,"Ġweather":3735,"rapy":3736,"Ġselection":3737,"Ġfinish":3738,"oke":3739,"Ġdouble":3740,"iety":3741,"Ġplayer":3742,"ray":3743,"ĠInternet":3744,"pen":3745,"Ġemot":3746,"ĠEuropean":3747,"lock":3748,"Ġabsolute":3749,"Ġdead":3750,"ĠMod":3751,"Ġnumbers":3752,"Ġefficient":3753,"Ġcollabor":3754,"ĠBusiness":3755,"Ġsort":3756,"ser":3757,"Ġcapital":3758,"Ġhelping":3759,"Ġblue":3760,"Ġ2010":3761,"Ġlines":3762,"Ġpet":3763,"body":3764,"Pro":3765,"Ġthous":3766,"enior":3767,"Ġbaby":3768,"Ġsoci":3769,"dom":3770,"Ġannual":3771,"Ġstraight":3772,"Ġprotection":3773,"ĠSaturday":3774,"Ġextremely":3775,"hens":3776,"Ġnormal":3777,"22":3778,"oly":3779,"Ġvot":3780,"Ġrock":3781,"Ġnotice":3782,"Ġmodels":3783,"ancing":3784,"Ġcontinu":3785,"more":3786,"ĠWindows":3787,"ĠOut":3788,"Ġdro":3789,"Ġborn":3790,"ĠPort":3791,"porary":3792,"nded":3793,"Ġcold":3794,"Ġclin":3795,"Is":3796,"ologies":3797,"Ġreasons":3798,"ĠProf":3799,"Ġcreative":3800,"iment":3801,"iques":3802,"ault":3803,"Ġreli":3804,"Ġstudies":3805,"Ġutil":3806,"Ġevalu":3807,"Ġbrow":3808,"Ġfell":3809,"Ġelectric":3810,"Ġbottom":3811,"Ġdress":3812,"ĠStreet":3813,"AD":3814,"istics":3815,"Ġson":3816,"Ġfinally":3817,"Ġdemonst":3818,"ĠCanada":3819,"Ġmovie":3820,"Ġru":3821,"Ġbatter":3822,"undred":3823,"bon":3824,"Ġstates":3825,"Ġcru":3826,"Ġstrategy":3827,"Ġcoffee":3828,"Ġdat":3829,"aling":3830,"itter":3831,"arc":3832,"field":3833,"Ġprinc":3834,"ĠTHE":3835,"ĠLaw":3836,"Ġteams":3837,"sec":3838,"inated":3839,"ously":3840,"Ġchanged":3841,"alt":3842,"Ġfurniture":3843,"ened":3844,"Ġtrain":3845,"Ġmaybe":3846,"Ġplus":3847,"Ġchallenge":3848,"Ġpen":3849,"ĠCle":3850,"asc":3851,"Ġcandid":3852,"Ġthank":3853,"estern":3854,"Ġwindow":3855,"Ġbackground":3856,"ipped":3857,"Ġpowerful":3858,"Ġdisease":3859,"que":3860,"Ġthanks":3861,"ooks":3862,"Ġfra":3863,"Ġbedroom":3864,"Ġmethods":3865,"oul":3866,"Ġhop":3867,"col":3868,"hol":3869,"Ġsty":3870,"Ġsust":3871,"Ġturned":3872,"Ġfant":3873,"Ġdoll":3874,"Ġnation":3875,"Ġcompared":3876,"ĠRuss":3877,"Ġliter":3878,"Ġrelax":3879,"These":3880,"atically":3881,"Ġpow":3882,"Ġbelie":3883,"Ġfat":3884,"Â®":3885,"venue":3886,"usive":3887,"atever":3888,"bert":3889,"Ġknew":3890,"Ġgreater":3891,"ĠMany":3892,"Ġcards":3893,"Ġremain":3894,"Ġrules":3895,"Ġidentify":3896,"Ġnearly":3897,"ĠFebruary":3898,"Ġsteps":3899,"Ġitem":3900,"icip":3901,"Ġcove":3902,"Ġlength":3903,"ani":3904,"ĠGet":3905,"anging":3906,"Ġpieces":3907,"Ġsecure":3908,"Ġinstitut":3909,"force":3910,"tenance":3911,"Ġexhib":3912,"ĠRem":3913,"Ġestate":3914,"Ġchurch":3915,"ĠAustralia":3916,"atively":3917,"Ġ28":3918,"bum":3919,"acity":3920,"Ġjourney":3921,"Ġchem":3922,"Ġincome":3923,"Ġserved":3924,"Ġreports":3925,"Ġcolle":3926,"Ġsaying":3927,"rated":3928,"Ġlands":3929,"Ġscience":3930,"Ġestablished":3931,"inate":3932,"Ġlarger":3933,"Ġconven":3934,"duc":3935,"Ġscient":3936,"Ġvict":3937,"rel":3938,"iant":3939,"Ġcho":3940,"Ġmechan":3941,"ders":3942,"Ġhelped":3943,"Ġalthough":3944,"ĠMond":3945,"ned":3946,"iny":3947,"ĠSch":3948,"Ġallowed":3949,"ĠAny":3950,"US":3951,"OL":3952,"Ġremo":3953,"Ġgrand":3954,"ĠIT":3955,"Ġsharing":3956,"Ġahead":3957,"rol":3958,"Ġoccas":3959,"Ġrequires":3960,"Ġevidence":3961,"Ġsweet":3962,"Ġbutton":3963,"roid":3964,"Ġalone":3965,"ĠPal":3966,"see":3967,"Ġpaint":3968,"Ġwild":3969,"Ġcraft":3970,"unte":3971,"ulf":3972,"ĠPC":3973,"hether":3974,"odes":3975,"ĠProgram":3976,"ĠGold":3977,"Ġmanage":3978,"Ġgarden":3979,"Ġexpand":3980,"Ġadvantage":3981,"ĠIS":3982,"Ġmiddle":3983,"Ġtraffic":3984,"Ġstrength":3985,"Ġvill":3986,"ivil":3987,"Ġ26":3988,"ĠWell":3989,"ĠCr":3990,"75":3991,"aughter":3992,"term":3993,"eria":3994,"lands":3995,"Ġmiles":3996,"Ġwants":3997,"Com":3998,"ĠCouncil":3999,"ĠUp":4000,"ĠMarket":4001,"icing":4002,"ĠIndian":4003,"Ġattract":4004,"Ġtitle":4005,"inter":4006,"Ġincred":4007,"Ġ|":4008,"Ġflav":4009,"ĠBest":4010,"Ġmis":4011,"ugh":4012,"ĠFlor":4013,"ĠJe":4014,"phone":4015,"IP":4016,"ĠPri":4017,"esome":4018,"aker":4019,"unk":4020,"Ġconnection":4021,"ĠAssociation":4022,"ĠEach":4023,"ION":4024,"order":4025,"Ġmill":4026,"Ġflex":4027,"itude":4028,"Ġcommunication":4029,"Ġtechnical":4030,"Ġgraph":4031,"ĠDel":4032,"overy":4033,"Ġpeace":4034,"Ġsports":4035,"Ġiniti":4036,"Ġchann":4037,"Ġearlier":4038,"Ġreviews":4039,"ĠInter":4040,"omen":4041,"Ġwear":4042,"Ġretail":4043,"nown":4044,"Ġ+":4045,"Ġspread":4046,"Ġrace":4047,"Ġfill":4048,"care":4049,"ĠGreen":4050,"Ġefforts":4051,"Ġhundred":4052,"well":4053,"Ġdriving":4054,"Ġwoman":4055,"Ġexperts":4056,"agram":4057,"ĠWeb":4058,"ĠGood":4059,"Ġserious":4060,"Ġannounced":4061,"ĠHot":4062,"Ġletter":4063,"Ġmaster":4064,"Ġprimary":4065,"Ġviews":4066,"No":4067,"ald":4068,"Ġdoub":4069,"EM":4070,"Ġtur":4071,"cape":4072,"Ġcamera":4073,"orrow":4074,"Ġgenerally":4075,"Ġmoved":4076,"Ġorganizations":4077,"Ġprofessionals":4078,"Ġfinished":4079,"Ġfollowed":4080,"Ġtag":4081,"ĠWhite":4082,"Ġtips":4083,"Ġpartner":4084,"Ġpark":4085,"ĠBel":4086,"Ġresist":4087,"Ġstandards":4088,"Ġtim":4089,"coming":4090,"ĠMac":4091,"Ġonto":4092,"Ġexperiences":4093,"Ġaren":4094,"Ġtask":4095,"vin":4096,"ĠOnce":4097,"ĠDec":4098,"45":4099,"Ġbillion":4100,"Ġvalues":4101,"ĠBoard":4102,"Ġguid":4103,"Ġjobs":4104,"cel":4105,"While":4106,"Ġremove":4107,"Ġlooked":4108,"Ġcry":4109,"Ġbow":4110,"IG":4111,"Ġschedule":4112,"Ġshoot":4113,"Ġstream":4114,"Ġcovered":4115,"ounds":4116,"Ġdelic":4117,"hips":4118,"ĠDist":4119,"encies":4120,"reed":4121,"Ġopin":4122,"Ġdiscount":4123,"ico":4124,"Ġslight":4125,"Ġfather":4126,"ĠMa":4127,"Now":4128,"Ġdetermine":4129,"âĢĿ,":4130,"Ġactual":4131,"Ġsurv":4132,"Ġcritical":4133,"pm":4134,"ĠSpr":4135,"Ġsand":4136,"hy":4137,"Ġelements":4138,"Ġsteel":4139,"Ġstrugg":4140,"Ġowner":4141,"Ġprogress":4142,"Ġcancer":4143,"Ġtherefore":4144,"Ġupdate":4145,"eds":4146,"Ġbathroom":4147,"ĠII":4148,"Ġchallenges":4149,"ashington":4150,"Ġmatt":4151,"ĠHall":4152,"Ġshared":4153,"Ġpolice":4154,"Ġthreat":4155,"la":4156,"ĠAss":4157,"tra":4158,"rem":4159,"ribute":4160,"Ġentertain":4161,"Ġhandle":4162,"ĠOffice":4163,"fast":4164,"Ġden":4165,"Ġperhaps":4166,"Ġfriendly":4167,"Ġacadem":4168,"Ġadvanced":4169,"Ġfinding":4170,"ĠGovern":4171,"ĠOther":4172,"ãģ":4173,"Ġrefer":4174,"ĠMonday":4175,"Ġexplore":4176,"Ġcleaning":4177,"Ġdeveloping":4178,"overed":4179,"Ġshopping":4180,"ĠDevelop":4181,"lying":4182,"ĠFound":4183,"ommod":4184,"à¤":4185,"Ġwine":4186,"Ġserver":4187,"Ġparties":4188,"Ġroof":4189,"Ġopening":4190,"100":4191,"Ġcontains":4192,"Ġexcl":4193,"Ġ27":4194,"enses":4195,"down":4196,"pective":4197,"ament":4198,"ctors":4199,"dy":4200,"mar":4201,"Ġcolors":4202,"__":4203,"Ġsolid":4204,"Ġsession":4205,"Ġloan":4206,"Ġharm":4207,"Ġhimself":4208,"bu":4209,"ĠSuper":4210,"rig":4211,"ios":4212,"Ġpros":4213,"Ġcells":4214,"ael":4215,"aled":4216,"iation":4217,"Ġteaching":4218,"Ġholiday":4219,"Ġincor":4220,"Ġfear":4221,"Ġbalance":4222,"ĠRead":4223,"Ġassign":4224,"Ġdedicated":4225,"35":4226,"Ġlimit":4227,"Ġwelcome":4228,"De":4229,"Ġban":4230,"Please":4231,"ying":4232,"Ġmemory":4233,"Ġpoor":4234,"Ġmetal":4235,"Ġshape":4236,"ĠClub":4237,"standing":4238,"ĠEduc":4239,"ĠIr":4240,"Ġsmooth":4241,"iency":4242,"Ġtalking":4243,"Ġdrop":4244,"Ġlisted":4245,"Ġforce":4246,"Ġwinter":4247,"Ġheavy":4248,"Ġbrain":4249,"icking":4250,"ayer":4251,"Ġcit":4252,"Ġadop":4253,"Ġvirt":4254,"Ġfacilities":4255,"Ġcup":4256,"Ġhighlight":4257,"Ġcast":4258,"Ġtrou":4259,"rey":4260,"ĠChurch":4261,"Ġstatement":4262,"Ġalbum":4263,"BC":4264,"gen":4265,"acing":4266,"estival":4267,"Ġdete":4268,"vision":4269,"inese":4270,"Ġforms":4271,"Ġpassion":4272,"Ġestablish":4273,"Ġdiscover":4274,"ĠAnt":4275,"Ġcars":4276,"Ġmovement":4277,"Ġtend":4278,"Ġplaced":4279,"Ġwhose":4280,"Ġtesting":4281,"Ġfactors":4282,"mp":4283,"Ġselected":4284,"enture":4285,"Ġingred":4286,"Ġvoice":4287,"ĠMo":4288,"Ġproduced":4289,"fit":4290,"Ġseeing":4291,"Ġhus":4292,"Ġprepared":4293,"roud":4294,"ĠManagement":4295,"Ġpresented":4296,"Ġcounter":4297,"ixt":4298,"Ġcheap":4299,"ĠThank":4300,"ĠFrench":4301,"osing":4302,"orial":4303,"ero":4304,"Ġmission":4305,"Ġtechniques":4306,"Ġrooms":4307,"IM":4308,"rote":4309,"ĠSince":4310,"imb":4311,"Ġcomments":4312,"semb":4313,"Ġfashion":4314,"Ġstar":4315,"ĠResearch":4316,"ĠTex":4317,"Ġtree":4318,"Ġbreat":4319,"Ġmotor":4320,"Ġlearned":4321,"Ġrelevant":4322,"Ġwife":4323,"Ġmaintenance":4324,"iber":4325,"ĠPost":4326,"ĠWashington":4327,"lines":4328,"Ġquarter":4329,"Ġpopulation":4330,"ĠCourt":4331,"ĠMicro":4332,"They":4333,"ij":4334,"itors":4335,"Ġaudience":4336,"90":4337,"Ġrich":4338,"rael":4339,"ĠBritish":4340,"inger":4341,"ĠIns":4342,"Ġcentury":4343,"ĠSpe":4344,"othing":4345,"Ġcommunities":4346,"ĠYear":4347,"Ġhaven":4348,"Ġkeeping":4349,"hop":4350,"Ġwaste":4351,"ula":4352,"Ġevening":4353,"raw":4354,"Ġplenty":4355,"Ġnames":4356,"apter":4357,"ĠSupp":4358,"26":4359,"text":4360,"pet":4361,"Ġshot":4362,"Ġfaith":4363,"CC":4364,"Pl":4365,"rief":4366,"yn":4367,"Ġproperties":4368,"Ġplants":4369,"Ġnamed":4370,"inding":4371,"Ġfunds":4372,"Ġbuying":4373,"Ġclasses":4374,"icine":4375,"Ġeight":4376,"Ġspring":4377,"Ġcouldn":4378,"rupt":4379,"Ġstation":4380,"Ġ2009":4381,"Ġcapacity":4382,"Ġaccommod":4383,"ĠOb":4384,"inally":4385,"ĠDavid":4386,"ĠJack":4387,"Ġseven":4388,"ĠBook":4389,"Ġlinks":4390,"ĠClass":4391,"isation":4392,"Ġfan":4393,"ĠRoad":4394,"ĠSee":4395,"ĠProdu":4396,"Ġguests":4397,"Ġforget":4398,"Ġcentral":4399,"Ġkept":4400,"Ġoperations":4401,"lation":4402,"Ġcompre":4403,"ĠMor":4404,"Ġsuff":4405,"Ġreflect":4406,".)":4407,"Ġstatus":4408,"actions":4409,"Ġadvance":4410,"osure":4411,"ortunately":4412,"ston":4413,"Ġdang":4414,"soft":4415,"ĠPlan":4416,"ĠFlorida":4417,"ĠRet":4418,"using":4419,"Here":4420,"Ġ80":4421,"Ġfish":4422,"Ġadding":4423,"za":4424,"Ð¸":4425,"Ġluck":4426,"ervation":4427,"Ġscore":4428,"free":4429,"Ġdriver":4430,"Ġsmaller":4431,"Ġir":4432,"Ġdirection":4433,"Ġcompetition":4434,"88":4435,"Ġ2008":4436,"Ġconference":4437,"ago":4438,"ught":4439,"Ġrepe":4440,"Ġpractices":4441,"Ġvisitors":4442,"works":4443,"Ġwire":4444,"Ġgain":4445,"ĠAP":4446,"):":4447,"Ġessay":4448,"Ġhelpful":4449,"Ġdesigns":4450,"Ġdiet":4451,"Ġinstallation":4452,"Ġhom":4453,"Ġfee":4454,"icon":4455,"mark":4456,"Ġoperating":4457,"eed":4458,"Ġtemperature":4459,"ĠOver":4460,"ĠWed":4461,"nding":4462,"rees":4463,"Ġgone":4464,"Ġbiggest":4465,"Ġmicro":4466,"ĠDown":4467,"Ġmer":4468,"ellow":4469,"Ġcloud":4470,"Ġfigure":4471,"Un":4472,"Ġscen":4473,"azon":4474,"Ġseparate":4475,"Ġvisual":4476,"top":4477,"Ġarchitect":4478,"65":4479,"Ġexercise":4480,"sey":4481,"!!!":4482,"\",":4483,"Ġvolunte":4484,"Ġrestaurant":4485,"Ġrelig":4486,"Ġinvestig":4487,"LE":4488,"www":4489,"amm":4490,"Ġpackage":4491,"Ġfans":4492,"Ġpush":4493,"Ġworkers":4494,"Ġapproxim":4495,"Ġ90":4496,"ĠPaul":4497,"Ġlaunch":4498,"Ġmedium":4499,"Ġnumerous":4500,"Ġwat":4501,"ĠDem":4502,"box":4503,"Ġdirector":4504,"MS":4505,"ym":4506,"Ġarrange":4507,"Ġbecomes":4508,"Ġcoverage":4509,"Ġformat":4510,"Ġeconomy":4511,"Ġbeach":4512,"Ġbill":4513,"ĠMem":4514,"Ġice":4515,"Ġwaiting":4516,"Ġ197":4517,"ado":4518,"ĠMet":4519,"âĢ¢":4520,"Ġsector":4521,"ĠST":4522,"olate":4523,"ĠSub":4524,"Ġmilitary":4525,"....":4526,"ĠLake":4527,"Ġvision":4528,"????":4529,"Ġbright":4530,"Ġobv":4531,"Ġexpensive":4532,"Ġhusband":4533,"Ġreality":4534,"Ġdecide":4535,"ails":4536,"ocr":4537,"Ġolder":4538,"Ġdur":4539,"ech":4540,"ĠAdd":4541,"Ġchanging":4542,"Ġcombination":4543,"21":4544,"asy":4545,"ss":4546,"Ġdatab":4547,"ĠRiver":4548,"omb":4549,"Ġotherwise":4550,"ursday":4551,"Ġtempl":4552,"Ġflu":4553,"ĠInstitute":4554,"ĠMake":4555,"Ġproud":4556,"Ġsustain":4557,"Ġsociety":4558,"ternal":4559,"Ġprocesses":4560,"Ġresidents":4561,"Ġrat":4562,"Ġgall":4563,"apers":4564,"Ġbeauty":4565,"Ġcharacters":4566,"ĠSk":4567,"abilities":4568,"ĠTexas":4569,"Ġmentioned":4570,"asure":4571,"ĠAnn":4572,"Ġvalu":4573,"Ġmap":4574,"Ġclassic":4575,"Ġpassed":4576,"Ġconnected":4577,"Ġcabin":4578,"Ġunf":4579,"ĠWhy":4580,"Ġtruth":4581,"Ġleader":4582,"Ġcream":4583,"Ġfamous":4584,"Ġrare":4585,"ĠBank":4586,"ĠChinese":4587,"Ġcalls":4588,"Ġran":4589,"28":4590,"Ġmist":4591,"icies":4592,"Ad":4593,"Ġrob":4594,"Ġbeg":4595,"ga":4596,"Ġanti":4597,"Ġdrug":4598,"Ġlux":4599,"ĠGeneral":4600,"Ġvideos":4601,"Ġmulti":4602,"Ġoutdoor":4603,"active":4604,"Ġhappens":4605,"oes":4606,"ĠMag":4607,"Ġcore":4608,"Ġprocessing":4609,"27":4610,"Ġsched":4611,"Ġcontinued":4612,"Ġflat":4613,"Ġagreement":4614,"ĠWilliam":4615,"Ġstick":4616,"ocal":4617,"Ġdecisions":4618,"Ġhappened":4619,"Ġmaximum":4620,"ĠAfrica":4621,"Ġgrant":4622,"ĠIsrael":4623,"unning":4624,"cket":4625,"Ġestim":4626,"ĠBay":4627,"Ġpsych":4628,"UR":4629,"ĠWord":4630,"ota":4631,"ĠMount":4632,"Your":4633,"Ġdocuments":4634,"ask":4635,"Ġcolour":4636,"ads":4637,"Ġencourage":4638,"ented":4639,"aming":4640,"Ġimpl":4641,"Ġtaste":4642,"Ġsources":4643,"Ġcourses":4644,"500":4645,"ĠCare":4646,"Ġdisapp":4647,"ception":4648,"TS":4649,"ishes":4650,"Ġapplied":4651,"ĠAv":4652,"Ġthus":4653,"Ġbecoming":4654,"ĠUs":4655,"Ġsurg":4656,"uesday":4657,"Ġ29":4658,"Ġindependent":4659,"Ġfees":4660,"Ġexcited":4661,"ĠOF":4662,"Ġunc":4663,"ĠMart":4664,"Ġtheme":4665,"Ġwrote":4666,"Ġstreet":4667,"Ġearth":4668,"Ġoperation":4669,"Ġvalid":4670,"Ġsets":4671,"Ġartist":4672,"Ġunits":4673,"ĠSa":4674,"Ġachie":4675,"ĠBecause":4676,"ĠLord":4677,"oma":4678,"ĠPhot":4679,"Ġthousands":4680,"ĠJer":4681,"Ġconfig":4682,"Ġ70":4683,"ona":4684,"Ġrecip":4685,"ores":4686,"Ġfantastic":4687,"Ġmanager":4688,"Ġprincip":4689,"Ġfold":4690,"ship":4691,"ÑĢ":4692,"Ġdiagn":4693,"gal":4694,"ĠApple":4695,"Ġwhatever":4696,"Ġfem":4697,"rical":4698,"Ġsnow":4699,"Ġcasino":4700,"icken":4701,"Ġplastic":4702,"Ġspect":4703,"arge":4704,"Ġveget":4705,"Ġmeant":4706,"Ġfocused":4707,"Ġdistance":4708,"ĠWater":4709,"OW":4710,"Ġforeign":4711,"ĠChristian":4712,"Ġdescribed":4713,"itar":4714,"Ġindic":4715,"Ġopened":4716,"Ġdoctor":4717,"ĠUSA":4718,"Ġegg":4719,"Ġalternative":4720,"Ġshowing":4721,"Ġrecords":4722,"Ġremains":4723,"Ġbul":4724,"Ġsounds":4725,"Ġruns":4726,"craft":4727,"Ġtrail":4728,"Ġremind":4729,"Ġmarkets":4730,"Ñģ":4731,"Ġwebsites":4732,"Ġselling":4733,"ĠEngine":4734,"ĠDirector":4735,"Ġfederal":4736,"ĠFore":4737,"Ġdining":4738,"vere":4739,"ÑĤ":4740,"33":4741,"ĠMary":4742,"NA":4743,"Ġhttp":4744,"ĠRock":4745,"Ġrecipe":4746,"Ġdecl":4747,"Ġrain":4748,"Ġfabric":4749,"Ġ31":4750,"anta":4751,"Ġcaused":4752,"ĠCam":4753,"Ġsea":4754,"nesday":4755,"Ġenjoyed":4756,"ĠâĢ¦":4757,"ĠSur":4758,"Ġminimum":4759,"Ġdinner":4760,"Ġdim":4761,"Ġnovel":4762,"Ġtoward":4763,"Ġbird":4764,"Ġworry":4765,"Ġteachers":4766,"Ġupgra":4767,"Ġperformed":4768,"Ġlock":4769,"Ġlose":4770,"Ġbought":4771,"ferences":4772,"Ġexpress":4773,"Ġpanel":4774,"DA":4775,"net":4776,"Ġbrother":4777,"ĠLife":4778,"ĠCheck":4779,"lled":4780,"ĠArch":4781,"Ġdu":4782,"Ġdump":4783,"ifts":4784,"ĠSing":4785,"ĠThursday":4786,"Ġadapt":4787,"ĠPR":4788,"Ġpolicies":4789,"ï¿":4790,"ĠAlthough":4791,"Ġpair":4792,"ĠSoc":4793,"Ġsch":4794,"Ġexciting":4795,"issions":4796,"Ġabsolutely":4797,"Ġcompar":4798,"ĠCong":4799,"Ġaffordable":4800,"ĠPower":4801,"iration":4802,"Ġcorner":4803,"Ġclaims":4804,"Ġminute":4805,"gment":4806,"Ġanimals":4807,"Ġframe":4808,"Ġfacility":4809,"Ġpresence":4810,"Ġmort":4811,"ĠAnge":4812,"Ġcomprehens":4813,"ï¿½":4814,"ĠVis":4815,"Ġdebt":4816,"Ġspending":4817,"Ġsav":4818,"oe":4819,"Ġproperly":4820,"ror":4821,"ooper":4822,"Ġmenu":4823,"Ġinjury":4824,"Ġinstalled":4825,"Ġpresident":4826,"Ġassistance":4827,"ifying":4828,"Ġmajority":4829,"Ġswitch":4830,"Ġleadership":4831,"iliar":4832,"ructure":4833,"Ġextensive":4834,"ĠEducation":4835,"ĠSal":4836,"Ġteacher":4837,"Ġcontinues":4838,"ĠHy":4839,"icians":4840,"Ġstone":4841,"mail":4842,"ette":4843,"Ġrecommended":4844,"Ġdetailed":4845,"Ġposts":4846,"going":4847,"Ġchair":4848,"Ġcatch":4849,"ĠVe":4850,"ĠNews":4851,"Ġartists":4852,"essions":4853,"tion":4854,"uled":4855,"Ġcompl":4856,"emporary":4857,"Ġmanaged":4858,"Ġautomatically":4859,"29":4860,"Ġconcent":4861,"oman":4862,"Ġknows":4863,"estic":4864,"Ġbrings":4865,"alls":4866,"men":4867,"iled":4868,"Ġreference":4869,"olic":4870,"Ġ...":4871,"Ġguess":4872,"Ġsouth":4873,"Ġdistrict":4874,"inct":4875,"ĠUse":4876,"yer":4877,"Ġconcerns":4878,"osis":4879,"Ġcorporate":4880,"Ġthoughts":4881,"ĠTrump":4882,"point":4883,"ĠWood":4884,"fficient":4885,"Thanks":4886,"Ġawesome":4887,"Ġhospital":4888,"Ġtow":4889,"ĠPlay":4890,"Ġupdated":4891,"arrant":4892,"Ġscale":4893,"ĠTuesday":4894,"Ġdaughter":4895,"Ġstarts":4896,"PA":4897,"iers":4898,"Ġsuitable":4899,"Ġeth":4900,"Ġprovider":4901,"ĠScience":4902,"Ġwww":4903,"Ġton":4904,"Ġlocations":4905,"bl":4906,"ĠSun":4907,"ĠMal":4908,"Ġsem":4909,"Ġrelationships":4910,"Ġtopic":4911,"ulated":4912,"uce":4913,"ĠJames":4914,"Ġcomponents":4915,"ĠSl":4916,"amily":4917,"leg":4918,"Ġclearly":4919,"osition":4920,"ĠLove":4921,"aven":4922,"Ġtransform":4923,"Ġwouldn":4924,"Ġallowing":4925,"ĠClick":4926,"Don":4927,"Ġwindows":4928,"Ġillust":4929,"aj":4930,"Ġingredients":4931,"ĠPeople":4932,"Ġdesk":4933,"vention":4934,"amin":4935,"Ġwalking":4936,"Ġthrow":4937,"Ġdied":4938,"Ġtypically":4939,"IV":4940,"usher":4941,"Ġhonest":4942,"Ġleaves":4943,"Ġleaving":4944,"Ġdepartment":4945,"ĠIsland":4946,"ĠVol":4947,"Ġstrategies":4948,"isco":4949,"Ġregistered":4950,"Ġenvironmental":4951,"Ġsugar":4952,"Ġsym":4953,"Ġpal":4954,"Ġ?":4955,"Ġdram":4956,"ĠChild":4957,"ĠEngland":4958,"Ġagency":4959,"ĠTy":4960,"Ġfilled":4961,"44":4962,"outhern":4963,"Ġwilling":4964,"pond":4965,"Ġpreviously":4966,"ront":4967,"Ġfol":4968,"Ġquant":4969,"Ġclosed":4970,"Ġsenior":4971,"Ġactions":4972,"Ġfuel":4973,"bed":4974,"ĠCustom":4975,"Ġvehicles":4976,"rete":4977,"ĠRich":4978,"ĠRepublic":4979,"ĠSom":4980,"den":4981,"Ġ2007":4982,"Ġder":4983,"ocolate":4984,"log":4985,"Ġcitiz":4986,"Ġride":4987,"Ġlovely":4988,"ĠCommission":4989,"ampions":4990,"Ġ35":4991,"ĠWednesday":4992,"Ġapproximately":4993,"Ġjoint":4994,"ĠTop":4995,"rim":4996,"ĠPublic":4997,"pid":4998,"obile":4999,"ĠAC":5000,"ĠOpen":5001,"Ġshowed":5002,"ĠLear":5003,"ĠSil":5004,"igence":5005,"Ġstores":5006,"Ġtrees":5007,"Ġrestrict":5008,"Ġsquare":5009,"ĠID":5010,"Ġship":5011,"Ġinternal":5012,"Ġcities":5013,"Ġpredict":5014,"Ġexpertise":5015,"Ġfunding":5016,"Ġresponsibility":5017,"bour":5018,"ĠOnline":5019,"Ġedge":5020,"ĠEv":5021,"Ġgeneration":5022,"Ġeating":5023,"Ġcentre":5024,"ĠCommit":5025,"Ġnorth":5026,"state":5027,"ĠCall":5028,"Some":5029,"inating":5030,"Ġbusy":5031,"Ġspecies":5032,"uty":5033,"ĠCamp":5034,"Ġpractical":5035,"New":5036,"reek":5037,"ĠCur":5038,"ĠDevelopment":5039,"Des":5040,"Ġmanner":5041,"Ġslightly":5042,"Ġbattery":5043,"Ġimportance":5044,"Ġshipping":5045,"Ġaspects":5046,"Ġserving":5047,"Ġbehavior":5048,"Ġdial":5049,"fol":5050,"ĠBig":5051,"Ġargu":5052,"She":5053,"Ġlaun":5054,"how":5055,"rian":5056,"Ġcalcul":5057,"uries":5058,"Ġcombined":5059,"Ar":5060,"Ġdepos":5061,"Ġunless":5062,"Ġexchange":5063,"poses":5064,"life":5065,"Ġenhance":5066,"LC":5067,"ĠTO":5068,"rab":5069,"omet":5070,"ĠJour":5071,"Ġelement":5072,"ĠStar":5073,"Ġsecret":5074,"Ġdiscussion":5075,"Ġgirl":5076,"ĠAND":5077,"Ġdisp":5078,"Ġcategory":5079,"Ġaccompl":5080,"paper":5081,"hi":5082,"Ġdepending":5083,"antic":5084,"Ġlaws":5085,"Ġvan":5086,"ĠElect":5087,"Ġneighbor":5088,"Ġthick":5089,"Ġseek":5090,"nel":5091,"Ġhar":5092,"Ġcart":5093,"night":5094,"CH":5095,"Ġnegative":5096,"ĠBeach":5097,"Ġappears":5098,"Ġtechnologies":5099,"Ġspl":5100,"ĠMill":5101,"Ġsurvey":5102,"Ġcontext":5103,"ander":5104,"tered":5105,"Ġlabor":5106,"Ġelim":5107,"Ġraised":5108,"From":5109,"Why":5110,"Ġconduct":5111,"Ġju":5112,"ĠSum":5113,"Ġleads":5114,"ĠJew":5115,"Ġcivil":5116,"hab":5117,"ĠFoundation":5118,"Ġerror":5119,"Ġcircum":5120,"osen":5121,"SS":5122,"Ġdynam":5123,"ĠSam":5124,"Ġprepare":5125,"Ġrid":5126,"Ġputting":5127,"ivered":5128,"Ġvote":5129,"rd":5130,"Ġreliable":5131,"Ġchemical":5132,"ipl":5133,"Ġfavour":5134,"Ġinnovative":5135,"Ġcris":5136,"Ġbon":5137,"ĠPet":5138,"Ġseat":5139,"IA":5140,"uman":5141,"ĠOh":5142,"Ġdoors":5143,"oration":5144,"Ġmental":5145,"Ġinterior":5146,"Ġmostly":5147,"Ġphotograph":5148,"Ġindustrial":5149,"Ġspecifically":5150,"ulate":5151,"Ġcrow":5152,"Ġourselves":5153,"mes":5154,"Ġconsid":5155,"unction":5156,"Ġfeedback":5157,"Ġjoined":5158,"Ġquot":5159,"Ð½":5160,"ĠCD":5161,"Ġarticles":5162,"no":5163,"Ġacademic":5164,"itness":5165,"ĠAM":5166,"Ġinfo":5167,"Ġguys":5168,"aser":5169,"Can":5170,"ĠCap":5171,"ĠIts":5172,"ĠHel":5173,"Se":5174,"Ġlisten":5175,"ĠPay":5176,"Ġfunctions":5177,"cean":5178,"IR":5179,"Ġjournal":5180,"water":5181,"Ġpurposes":5182,"Ġdelicious":5183,"**":5184,"Ġvolume":5185,"Ġwatching":5186,"Ġseconds":5187,"mal":5188,"azine":5189,"Ġfruit":5190,"Ġregister":5191,"orthern":5192,"ÂŃ":5193,"oles":5194,"ĠTheir":5195,"Ġign":5196,"Ġparking":5197,"Ġhyd":5198,"Ġdrink":5199,"rics":5200,"ĠMex":5201,"illa":5202,"Ġfootball":5203,"Ġproceed":5204,"PR":5205,"pan":5206,"Ġrub":5207,"Thank":5208,"ĠBlue":5209,"fin":5210,"Ġscene":5211,"prise":5212,"ĠMad":5213,"Ġinstance":5214,"outs":5215,"Ġjump":5216,"Ġtrading":5217,"By":5218,"Ġswim":5219,"Ġended":5220,"ĠRel":5221,"rive":5222,"Ġdatabase":5223,"ĠProfess":5224,"Ġlunch":5225,"ĠGrand":5226,"known":5227,"Ġanc":5228,"Ġprot":5229,"Ġ196":5230,"Ġaccounts":5231,"CA":5232,"ĠAmazon":5233,"Ġchoices":5234,"ĠLight":5235,"ĠMichael":5236,"ĠGlo":5237,"Con":5238,"Ġsport":5239,"lor":5240,"umin":5241,"Ġgoods":5242,"ĠHist":5243,"Ġpromote":5244,"rain":5245,"Ġaccident":5246,"with":5247,"Ġ500":5248,"Ġnotes":5249,"ya":5250,"Ġbrands":5251,"Ġaudio":5252,"Ġcommitted":5253,"Ġmotiv":5254,"ĠTur":5255,"ĠLo":5256,"Ġcultural":5257,"ograp":5258,"Ġì":5259,"Ne":5260,"ĠCentral":5261,"Ġtickets":5262,"Ġparticipants":5263,"ae":5264,"ĠMark":5265,"Ġteach":5266,"ĠBen":5267,"Ġcomprehensive":5268,"Ġmeasures":5269,"Ġclimate":5270,"Ġprofile":5271,"Ġanywhere":5272,"BA":5273,"Ġproviders":5274,"ĠBre":5275,"ilit":5276,"cles":5277,"ĠData":5278,"ĠValley":5279,"Ġdeals":5280,"Ġ=":5281,"ups":5282,"ĠCommunity":5283,"ĠBill":5284,"othes":5285,"ĠGovernment":5286,"Ġgirls":5287,"Not":5288,"Ġtea":5289,"eared":5290,"ĠCommittee":5291,"Ġguarantee":5292,"Ġappeal":5293,"ĠFire":5294,"Ġsuit":5295,"Ġfaster":5296,"Ġopinion":5297,"Ġpremium":5298,"Ġdie":5299,"cious":5300,"Ġreached":5301,"ulations":5302,"erry":5303,"Ġdelivered":5304,"hent":5305,"ĠStr":5306,"ĠQue":5307,"Ġsupported":5308,"Ġinfluence":5309,"Ġinput":5310,"Ġplug":5311,"Ġvisiting":5312,"Ġtast":5313,"ĠMot":5314,"ĠSol":5315,"Ġconfidence":5316,"Ġcompetitive":5317,"ĠWall":5318,"32":5319,"Ġattor":5320,"rastructure":5321,"36":5322,"ĠLou":5323,"ĠPhil":5324,"Ġsongs":5325,"ĠPM":5326,"Ġcoast":5327,"Ġtun":5328,"rier":5329,"ĠRoy":5330,"cohol":5331,"Ġnor":5332,"Ġradio":5333,"TH":5334,"Ġarm":5335,"ĠMaster":5336,"gn":5337,"Ġbrief":5338,"win":5339,"itz":5340,"ĠMusic":5341,"Ġfamiliar":5342,"Ġdecre":5343,"Ġpoly":5344,"ĠIP":5345,"ĠMil":5346,"Ġwinning":5347,"Ġrule":5348,"oor":5349,"ĠBuild":5350,"Ġmagn":5351,"55":5352,"Ġboy":5353,"Ġadults":5354,"ĠToday":5355,"ipp":5356,"ĠRob":5357,"Ġyouth":5358,"ĠÃ":5359,"Ġmode":5360,"ĠSociety":5361,"Ġresource":5362,"ĠUnder":5363,"Ġadvertising":5364,"BS":5365,"ĠWork":5366,"Ġkid":5367,"Ġoccup":5368,"but":5369,"Ġdespite":5370,"Ġvaluable":5371,"Ġtotally":5372,"Ġisland":5373,"ĠVir":5374,"ĠHill":5375,"Ġlibrary":5376,"DF":5377,"Ġemp":5378,"Ġsequ":5379,"ĠSocial":5380,"ĠThom":5381,"td":5382,"ini":5383,"Phone":5384,"ĠDistrict":5385,"Ġemergency":5386,"olars":5387,"ki":5388,"Ġflight":5389,"ĠMicrosoft":5390,"Ġenable":5391,"akers":5392,"inations":5393,"liance":5394,"what":5395,"ĠAL":5396,"Ġemployee":5397,"Ġbrown":5398,"Ġeventually":5399,"ĠMain":5400,"Ġliqu":5401,"Ġconsumer":5402,"orough":5403,"yal":5404,"Ġlights":5405,"never":5406,"Ġhearing":5407,"Ġsympt":5408,"Ġgather":5409,"Ġrise":5410,"ĠCas":5411,"Ġinspired":5412,"Ġsam":5413,"Ġchart":5414,"ario":5415,"Ġlad":5416,"Ġapproved":5417,"ano":5418,"Le":5419,"Ġmeal":5420,"Ġhousing":5421,"ĠTwitter":5422,"ste":5423,"ola":5424,"press":5425,"Ġlegis":5426,"Ġoutput":5427,"ĠInformation":5428,"ĠSpecial":5429,"Ġflowers":5430,"Ġwarrant":5431,"Ġpossibly":5432,"ĠDuring":5433,"Ġap":5434,"Ġeducational":5435,"Ġremoved":5436,"Ġconsumers":5437,"add":5438,"Ġshower":5439,"Ġven":5440,"Ġreturned":5441,"Ġ45":5442,"39":5443,"umber":5444,"Are":5445,"Ġmissing":5446,"Ġreput":5447,"equ":5448,"Ġasking":5449,"noon":5450,"Ġcoord":5451,"Ġpoll":5452,"Ġtherapy":5453,"ifications":5454,"Ġrestaurants":5455,"ĠLike":5456,"apos":5457,"Ġgun":5458,"Ġbeat":5459,"ĠTime":5460,"Ġsettings":5461,"Ġobl":5462,"OD":5463,"Ġintroduced":5464,"ĠIde":5465,"Ġspo":5466,"Ġtrial":5467,"which":5468,"Ġshut":5469,"Ġconstruct":5470,"Ġshap":5471,"cap":5472,"ĠChic":5473,"list":5474,"ĠNor":5475,"Ġbreakfast":5476,"34":5477,"ĠTor":5478,"Ġupdates":5479,"Ġbond":5480,"OP":5481,"Ġcovers":5482,"Ġrot":5483,"met":5484,"ĠBet":5485,"Ġvary":5486,"ĠAcadem":5487,"idden":5488,"Ġpump":5489,"roy":5490,"Ġsimpl":5491,"ensions":5492,"ĠUN":5493,"Ġinterests":5494,"friend":5495,"ucle":5496,"RA":5497,"yc":5498,"Ġment":5499,"Ġexplain":5500,"atin":5501,"Ġrapid":5502,"Ġmonthly":5503,"Ġepis":5504,"gging":5505,"Ġsigned":5506,"ĠProject":5507,"Ġbuildings":5508,"ĠAS":5509,"Ġfixed":5510,"Ġsample":5511,"ĠWhether":5512,"Ġfactor":5513,"Ġfields":5514,"Ġimproved":5515,"Ġexamples":5516,"Ġbound":5517,"Ġeffectively":5518,"Ġsymb":5519,"ĠMiss":5520,"Ġremote":5521,"aturing":5522,"Ġtests":5523,"ician":5524,"ĠFind":5525,"ĠAndroid":5526,"Ġstret":5527,"ĠSen":5528,"Ġresolution":5529,"een":5530,"ãĥ":5531,"Ġreaders":5532,"Ġrental":5533,"Ġ2006":5534,"âĦ":5535,"Ġpaying":5536,"ĠTem":5537,"Ġfeels":5538,"ĠFood":5539,"Ġlayer":5540,"Ġiron":5541,"Ġreduced":5542,"Ġraise":5543,"Ġtail":5544,"ĠSecurity":5545,"iance":5546,"ĠConst":5547,"Ġintell":5548,"Acc":5549,"ENT":5550,"Ġappreciate":5551,"Ġthr":5552,"Ġlighting":5553,"Ġresearc":5554,"pected":5555,"Ġnav":5556,"ĠPress":5557,"Ġcircumst":5558,"Ġintended":5559,"ĠTeam":5560,"38":5561,"oval":5562,"Ġanimal":5563,"eless":5564,"Ġweak":5565,"Ġamb":5566,"Ġ2000":5567,"ĠGerman":5568,"Just":5569,"ĠColor":5570,"Ġdomain":5571,"Ġannounce":5572,"Ġring":5573,"ĠFrance":5574,"ĠCentre":5575,"Me":5576,"ãĤ":5577,"pon":5578,"mosp":5579,"cont":5580,"phas":5581,"Ġboat":5582,"ĠGermany":5583,"gage":5584,"Ġdoubt":5585,"Ġseemed":5586,"Ġcommitment":5587,"En":5588,"spe":5589,"Ġsides":5590,"ĠDet":5591,"Ġlicense":5592,"Ġefficiency":5593,"ricult":5594,"urban":5595,"Ġdesire":5596,"ĠAlex":5597,"Ġmonit":5598,"Ġbutter":5599,"reens":5600,"Ġcalling":5601,"Ġpurchased":5602,"Ġoccasion":5603,"ius":5604,"gl":5605,"Ġmanufacturing":5606,"95":5607,"ĠDiv":5608,"Every":5609,"Ġvs":5610,"Ġdogs":5611,"ums":5612,"Ġauto":5613,"ĠReal":5614,"Jo":5615,"Ġkinds":5616,"olly":5617,"37":5618,"rome":5619,"iner":5620,"while":5621,"Ġquiet":5622,"Ġcomplic":5623,"Ġer":5624,"ĠSto":5625,"Ġadministration":5626,"Ġconvenient":5627,"lets":5628,"Ġregularly":5629,"Ġrealize":5630,"Ġaid":5631,"Ġdiam":5632,"jo":5633,"Ġinstructions":5634,"Ġglad":5635,"IF":5636,"ĠOR":5637,"However":5638,"Ġaccurate":5639,"Ġdance":5640,"ĠHD":5641,"estyle":5642,"Ġsignificantly":5643,"Ġsurgery":5644,"Ġadvis":5645,"ĠTake":5646,"ĠCard":5647,"ĠStand":5648,"iveness":5649,"Ġelectronic":5650,"Ġhundreds":5651,"Ġprocedure":5652,"Ġdiscovered":5653,"odies":5654,"road":5655,"Ġphil":5656,"Ġapps":5657,"Ġseeking":5658,"Ġclinical":5659,"ĠTown":5660,"ĠHave":5661,"Ġsitting":5662,"Ġsurrounding":5663,"Ġlaunched":5664,"48":5665,"Ġbringing":5666,"upp":5667,"Ġboost":5668,"Ġsupplies":5669,"Ġtransl":5670,"Ġcutting":5671,"ĠPan":5672,"Ġdrivers":5673,"Ġuniversity":5674,"ownt":5675,"ĠMatt":5676,"Ġgrade":5677,"athe":5678,"Ġengineering":5679,"Ġcooking":5680,"ĠMuseum":5681,"iest":5682,"Ġtight":5683,"Ġminor":5684,"Ġsalt":5685,"Ġconflic":5686,"Ġsaving":5687,"Ġchoo":5688,"Ġappearance":5689,"App":5690,"ĠDownload":5691,"Ġsupporting":5692,"ĠiPhone":5693,"ĠJournal":5694,"Ġdetermined":5695,"ĠTechnology":5696,"Ġsizes":5697,"luding":5698,"isher":5699,"Ġknowing":5700,"Ġagg":5701,"Ġperfectly":5702,"Ġfoods":5703,"Get":5704,"Ġsigns":5705,"ulty":5706,"Ġguest":5707,"Ġagent":5708,"Ġconfirm":5709,"Ġchosen":5710,"ĠBack":5711,"Ġassets":5712,"Ġgreatest":5713,"Ġfulf":5714,"Ġcommand":5715,"Ġdish":5716,"Ġpin":5717,"Ġholding":5718,"Ġpresentation":5719,"Ġforg":5720,"rition":5721,"Ġdistribution":5722,"Ġwheel":5723,"zen":5724,"Ġtasks":5725,"kin":5726,"Ġafternoon":5727,"Ġwalls":5728,"Ġcauses":5729,"Ġrevenue":5730,"ĠMass":5731,"ibilities":5732,"agra":5733,"ĠMel":5734,"Ġfly":5735,"Ġchocolate":5736,"Ġincredible":5737,"edy":5738,"Ġvit":5739,"SA":5740,"Ġmine":5741,"ĠMer":5742,"Ġcharges":5743,"ĠYOU":5744,"ait":5745,"riage":5746,"respond":5747,"prene":5748,"Ġcreation":5749,"Ġtopics":5750,"Ġbike":5751,"Ġrecovery":5752,"eper":5753,"Ġ>":5754,"Ġappointment":5755,"ĠBoth":5756,"Ġparticipate":5757,"amic":5758,"rag":5759,"Ġreplacement":5760,"Ġtables":5761,"cher":5762,"âĦ¢":5763,"ĠParty":5764,"ĠYes":5765,"âĢĻ.":5766,"Ġfailure":5767,"Ø§":5768,"Ġburn":5769,"adian":5770,"Ġben":5771,"Ġscript":5772,"loc":5773,"Ġwhom":5774,"Once":5775,"OC":5776,"ĠLim":5777,"oga":5778,"hetic":5779,"ĠUnion":5780,"alog":5781,"aught":5782,"aste":5783,"Ġperspective":5784,"orter":5785,"ĠRad":5786,"Ġroute":5787,"Ġconsequ":5788,"ĠTom":5789,"ĠTwo":5790,"ĠNOT":5791,"Ġjoy":5792,"Ġhire":5793,");":5794,"Ġprotein":5795,"Ġnurs":5796,"ĠCarol":5797,"Ġinfrastructure":5798,"Ġhouses":5799,"anish":5800,"ĠNY":5801,"Ġdating":5802,"Ġcarried":5803,"reprene":5804,"Ġmanual":5805,"Ġchain":5806,"Ġregistration":5807,"Ġuns":5808,"otic":5809,"Ġlived":5810,"Ġremaining":5811,"etime":5812,"Ġneck":5813,"pass":5814,"Ġec":5815,"Ġplate":5816,"rip":5817,"Ġatmosp":5818,"van":5819,"Ġconversation":5820,"alian":5821,"imately":5822,"Ġfreed":5823,"ĠIndust":5824,"ĠFranc":5825,"berg":5826,"ĠEnter":5827,"Ġsessions":5828,"ĠReview":5829,"Ġconsidering":5830,"Ġportion":5831,"ria":5832,"Ĥ¬":5833,"bre":5834,"Ġmeat":5835,"Ġsolar":5836,"ĠEarth":5837,"Ġcontra":5838,"Ġsurf":5839,"Ġadministr":5840,"ĠMont":5841,"ĠWestern":5842,"Ġassum":5843,"Ġneighborhood":5844,"gged":5845,"Ġforest":5846,"Ġsole":5847,"Ġdelight":5848,"Ġissued":5849,"burg":5850,"ĠHol":5851,"ially":5852,"ĠChicago":5853,"Ġtruck":5854,"Ġcop":5855,"ĠDig":5856,"Ġpayments":5857,"Ġexternal":5858,"iat":5859,"Ġâ":5860,"Ġtrained":5861,"arp":5862,"esterday":5863,"elines":5864,"Ġdecades":5865,"ĠCA":5866,"Ġcoach":5867,"nect":5868,"Ġidentified":5869,"Ġreasonable":5870,"Ġchicken":5871,"Ġinteg":5872,"Ġbigger":5873,"ĠAtl":5874,"Ġassemb":5875,"Ġprocedures":5876,"abled":5877,"Cont":5878,"Ġlicens":5879,"ĠCert":5880,"Ġguy":5881,"LA":5882,"Ġdollars":5883,"ller":5884,"Ġfle":5885,"Ġtrend":5886,"appy":5887,"TA":5888,"Ġpatterns":5889,"Ġexcess":5890,"ixture":5891,"Ġpainting":5892,"ĠBi":5893,"Ġplays":5894,"Ġpure":5895,"Ġ2005":5896,"Ð¾Ð":5897,"Ġtough":5898,"Ġproposed":5899,"Ġassessment":5900,"Ġshares":5901,"Ġcheese":5902,"Ġchannel":5903,"Ġmut":5904,"ĠMedical":5905,"Ġsymptoms":5906,"Ġbread":5907,"Ġbelong":5908,"ĠLtd":5909,"Ġarrived":5910,"ĠOld":5911,"Ġpray":5912,"Ġunivers":5913,"Ġowned":5914,"erves":5915,"OV":5916,"Ġmail":5917,"Ġorganic":5918,"Yes":5919,"Ġspaces":5920,"Ġyes":5921,"Ġmilk":5922,"Ġemphas":5923,"Ġbirthday":5924,"ĠOrgan":5925,"Ġtreated":5926,"Ġanswers":5927,"Ġ@":5928,"ushed":5929,"Ġbattle":5930,"Ġfo":5931,"ĠKore":5932,"ĠAfrican":5933,"ĠSmith":5934,"ĠBur":5935,"Ġbroken":5936,"oses":5937,"ĠHotel":5938,"Ġmouth":5939,"hand":5940,"Ġorders":5941,"xy":5942,"Ġupload":5943,"Ġstanding":5944,"Ġmal":5945,"ĠLong":5946,"Ġath":5947,"Ġcontemporary":5948,"Ġwriter":5949,"Ġteeth":5950,"ĠPlus":5951,"ĠMach":5952,"Ġcitizens":5953,"icial":5954,"Ġaffected":5955,"ef":5956,"Ġaccepted":5957,"Ġgear":5958,"Ġofficials":5959,"Sc":5960,"Ġcarefully":5961,"Ġrenew":5962,"uration":5963,"ĠBer":5964,"Ġhousehold":5965,"ita":5966,"iors":5967,"poration":5968,"orry":5969,"Ġreceiving":5970,"47":5971,"uality":5972,"nergy":5973,"ĠGal":5974,"Ġperman":5975,"ĠCongress":5976,"ulous":5977,"Ġsheet":5978,"ĠLead":5979,"uts":5980,"ĠWal":5981,"Ġmessages":5982,"Ġleather":5983,"Ġmatters":5984,"Ġlabel":5985,"Ġcrim":5986,"anged":5987,"weet":5988,"Ġhardware":5989,"ĠDi":5990,"Ġcompr":5991,"49":5992,"Ġvir":5993,"hus":5994,"Ġbegins":5995,"Ġresol":5996,"irms":5997,"ĠTour":5998,"ĠFil":5999,"ĠDa":6000,"Ġ32":6001,"Ġ*":6002,"Ġinvestors":6003,"ĠShow":6004,"ĠFund":6005,"UT":6006,"atre":6007,"Ġhun":6008,"Ġsuccessfully":6009,"ĠExper":6010,"Ġmachines":6011,"Ġwid":6012,"Ġscientific":6013,"ĠArts":6014,"rum":6015,"ĠTre":6016,"Ġholds":6017,"Ġsituations":6018,"dered":6019,"Ġreb":6020,"asp":6021,"Ġconstantly":6022,"Ġsupports":6023,"Ã¡":6024,"ĠGeorge":6025,"Ġworldwide":6026,"working":6027,"Ġimprovement":6028,"inn":6029,"ĠAward":6030,"Ġcycle":6031,"ĠTest":6032,"oti":6033,"ket":6034,"Ġsauce":6035,"MA":6036,"ĠSet":6037,"ĠAT":6038,"Ġprivacy":6039,"inder":6040,"Ġspr":6041,"ĠVirgin":6042,"eries":6043,"Ġprepar":6044,"ĠFamily":6045,"Ġupper":6046,"Any":6047,"Ġstre":6048,"ĠScott":6049,"Ġhistorical":6050,"Ġforces":6051,"ĠVict":6052,"Ġrelatively":6053,"fa":6054,"Ġresidential":6055,"Ġ300":6056,"Ġvillage":6057,"Ġur":6058,"Since":6059,"Ġtheory":6060,"ĠRE":6061,"Ġfort":6062,"Ġtut":6063,"Ġagencies":6064,"Ġconcerned":6065,"Ġstated":6066,"66":6067,"aked":6068,"Ġalcohol":6069,"Ġdefined":6070,"Ġinvolve":6071,"Ġsubmit":6072,"ĠWho":6073,"Ġrow":6074,"Ġped":6075,"ua":6076,"Ġacid":6077,"Ġcrew":6078,"Ġcrowd":6079,"ato":6080,"Ġcorrespond":6081,"Ġgarage":6082,"da":6083,"Ġauthent":6084,"Che":6085,"ĠOnly":6086,"Ġkill":6087,"ĠSand":6088,"ĠAtt":6089,"Many":6090,"Ġstudio":6091,"iter":6092,"Ġawareness":6093,"fection":6094,"Ġexpectations":6095,"Ġdegrees":6096,"Ġcandidates":6097,"Ġrecorded":6098,"Ġgrown":6099,"lla":6100,"Ġthread":6101,"Ġbowl":6102,"Ġconver":6103,"Ġtwice":6104,"Ġdistinct":6105,"Ġelig":6106,"ĠHosp":6107,"ĠBrown":6108,"Ġluxury":6109,"Ġcircumstances":6110,"ache":6111,"ighter":6112,"Ġinvent":6113,"Ġstyles":6114,"Ġconducted":6115,"cuit":6116,"Ġticket":6117,"arrow":6118,"hors":6119,"Ġcake":6120,"Ġicon":6121,"Ġappeared":6122,"ificate":6123,"ĠInvest":6124,"ĠJapanese":6125,"Ġemployment":6126,"ndom":6127,"ĠLeague":6128,"arsh":6129,"ĠAsia":6130,"Ġfailed":6131,"Ġfrequently":6132,"Ġplanned":6133,"Ġmel":6134,"Ġshel":6135,"Ġvictim":6136,"31":6137,"Ġchat":6138,"Ġsubstant":6139,"Ġparam":6140,"Ġloves":6141,"ĠON":6142,"Ġsignal":6143,"Ġkeeps":6144,"Ġaccessible":6145,"ĠHead":6146,"Ġfilter":6147,"ĠContact":6148,"Ġloans":6149,"Ġinstitutions":6150,"ĠAccording":6151,"Ġengage":6152,"Ġheight":6153,"Ġinspiration":6154,"Ġends":6155,"Ġnoted":6156,"ĠAustralian":6157,"Ġfif":6158,"ĠEU":6159,"ĠSoft":6160,"Ġlandscape":6161,"Ġexclusive":6162,"Ġmarried":6163,"Let":6164,"igan":6165,"Ġnom":6166,"igned":6167,"Ġtaught":6168,"Ġskill":6169,"Ġhosting":6170,"ossible":6171,"Ġsac":6172,"ĠBas":6173,"Ġbless":6174,"Ġmeetings":6175,"Ġfourth":6176,"ilst":6177,"sm":6178,"Ġinnovation":6179,"Ġintegrated":6180,"ii":6181,"Res":6182,"ï¼":6183,"erts":6184,"Ġprompt":6185,"Ġsymbol":6186,"Ġrear":6187,"Ġdeck":6188,"ĠAud":6189,"Ġcro":6190,"azz":6191,"ĠBud":6192,"Ġpublish":6193,"ĠPeter":6194,"Ġthorough":6195,"oop":6196,"Ġspeaking":6197,"ye":6198,"Ġsevere":6199,"Ġqualified":6200,"Ġalle":6201,"Ġriver":6202,"Ġdiverse":6203,"Ġimpressive":6204,"Ġfacilit":6205,"Ġchallenging":6206,"Ġshoes":6207,"Ġbrowser":6208,"ĠCEO":6209,"Ġsearching":6210,"osite":6211,"Ġentr":6212,"istan":6213,"Ġmountain":6214,"ras":6215,"Ġeveryday":6216,"acks":6217,"Ġphase":6218,"dem":6219,"Ġease":6220,"Ġprofit":6221,"SE":6222,"Ġdefault":6223,"ĠGall":6224,"Ġeleg":6225,"PC":6226,"ĠMedia":6227,"ĠOffic":6228,"ĠAddition":6229,"ht":6230,"Ġemotional":6231,"Ġoutstanding":6232,"secut":6233,"osoph":6234,"ĠTherefore":6235,"ĠConference":6236,"anda":6237,"Ġanx":6238,"anges":6239,"ĠHam":6240,"ĠLab":6241,"Ġdestination":6242,"Ġdiss":6243,"Ġking":6244,"ĠWhere":6245,"Ġtemplate":6246,"ias":6247,"ĠManager":6248,"UN":6249,"46":6250,"Ġtypical":6251,"related":6252,"Ġincl":6253,"ĠKeep":6254,"comes":6255,"Ġfeatured":6256,"race":6257,"elcome":6258,"Ġimagine":6259,"Ġtransition":6260,"Ste":6261,"Ġextended":6262,"Ġagreed":6263,"ĠStart":6264,"ora":6265,"Ġmassive":6266,"Ġexecutive":6267,"Ġroot":6268,"Ġmir":6269,"Ġregional":6270,"cknow":6271,"Ġsyn":6272,"Ġyellow":6273,"Ġmini":6274,"Ġinterface":6275,"Ġdescription":6276,"Sp":6277,"Ġsilver":6278,"First":6279,"you":6280,"ensity":6281,"pes":6282,"Ġvital":6283,"weight":6284,"Ġpositions":6285,"Ġserves":6286,"Ġcompens":6287,"77":6288,"ĠCat":6289,"Ġrandom":6290,"Ġturns":6291,"igration":6292,"Ġgolf":6293,"Ġpun":6294,"west":6295,"Bl":6296,"ĠPerson":6297,"Ġcloser":6298,"Most":6299,"Ġhealthcare":6300,"Ġwealth":6301,"Ġkick":6302,"Ġoperate":6303,"ĠLu":6304,"ĠGlobal":6305,"lete":6306,"can":6307,"Ġfro":6308,"ĠFrank":6309,"ĠMinister":6310,"ĠThrough":6311,"ĠDen":6312,"Ġclosely":6313,"Ġrail":6314,"Ġstunning":6315,"Ġdrugs":6316,"ĠAdv":6317,"ords":6318,"Another":6319,"Ġflexible":6320,"orable":6321,"Ġcontrast":6322,"Ġscheduled":6323,"Ġrisks":6324,"Ġequal":6325,"ĠLos":6326,"According":6327,"onom":6328,"ĠIll":6329,"ĠSqu":6330,"rid":6331,"Ġpm":6332,"Ġtrouble":6333,"Ġobjects":6334,"Ġang":6335,"Ġapartment":6336,"Ġentertainment":6337,"othe":6338,"Ġimplementation":6339,"Ġelection":6340,"Ġbelief":6341,"Ġfoundation":6342,"Ġnine":6343,"Ġsavings":6344,"SP":6345,"Ġprop":6346,"aren":6347,"ĠOper":6348,"Ġtrig":6349,"Ġidentity":6350,"Ġchoosing":6351,"Ġagents":6352,"Ġrom":6353,"under":6354,"Well":6355,"ena":6356,"SC":6357,"Ġdepth":6358,"Ġinformed":6359,"Ġweap":6360,"Ġrough":6361,"Ġprotected":6362,"Ġusual":6363,"Ġroutine":6364,"Ġformed":6365,"asts":6366,"ĠCy":6367,"fortunately":6368,"Ġadventure":6369,"Ġrecognized":6370,"ĠSeries":6371,"Ġupcoming":6372,"ĠFlo":6373,"Ġprogramme":6374,"Ġlifestyle":6375,"bur":6376,"Ġflag":6377,"%.":6378,"Ġentirely":6379,"Ġmotion":6380,"ML":6381,"ĠTable":6382,"Ġliquid":6383,"Ġsou":6384,"orgeous":6385,"Ġfemale":6386,"rency":6387,"Ġregulations":6388,"ĠLand":6389,"Ġeditor":6390,"pret":6391,"Ġvirtual":6392,"ework":6393,"osh":6394,"ĠProte":6395,"umps":6396,"Ġcapable":6397,"].":6398,"Ġast":6399}